##py
nanot
⌉
synchronized
epcs
##ree
##ive
polyvinylidene
baical
##itated
budget
cun
associated
implicating
к
##ospital
translocations
distingu
ather
h3k9
##lin
spi
rich
##脑
papill
chromophore
##ac
widths
thc
bloc
proxy
masses
orthopaedic
dormant
##≍
sily
##agner
programmes
forceps
2α
##66
产
polystyrene
methylprednisolone
neurol
##iance
ror
10x
##ette
veter
sit
hunter
647
pollination
belg
thoroughly
##cre
merg
documented
rhe
quies
nucleases
女
##rp
wmh
vegetative
trin
100×
relationship
annual
dispos
superf
corn
thapsigargin
nanos
cdk2
##roscopy
tissue
intensified
fung
##otid
sepha
contributor
repressed
refined
nigra
sns
##tite
##inia
amc
converging
##rounding
remarkably
dram
psychometric
progressively
voiding
marine
pupil
##γ
bangladesh
##noid
targeted
gating
prs
##vii
329
analges
tmz
public
pq
iap
prospective
vortex
subjects
adhesion
thz
horm
multipot
rebound
##rh
ي
amh
sid
cd24
antic
##opathological
confinement
ria
ancestry
##orth
curved
##amm
inward
##ables
seal
generalizable
bactericidal
##nish
breakage
displacements
##bour
##19
pef
pituitary
extern
₆
cd27
encoded
（
aneurys
linc
##154
posit
##ussis
seropos
disc
atresia
mating
π
𝜖
trem
respiratory
osteoclast
anthocyanin
responses
elegans
copper
abr
uncertainties
##⁵
##os
negatives
boy
mips
fru
round
2014b
cock
unnecess
##omato
viewing
noticeable
cd36
338
##opharmaceu
tandem
##operatively
subsequ
##ological
dehydro
diurnal
willingness
obesity
carries
ideally
aneuploid
emsa
##stem
measles
ti
##199
disorganized
vesicular
myocarditis
electrophore
1975
fuc
unique
gingivalis
volunt
##con
sep
farms
interneuron
##lib
##ermal
enhancing
acetal
prevented
spans
lap
loc
compatible
priorities
♀
118
##ι
##annel
##96
##itant
subdivided
pair
scheme
masks
facility
abduction
ca
##×10
nighttime
tumours
mmp9
football
##orex
base
cy5
trkb
##助
##uman
##197
perp
methionine
people
lps
cpl
autumn
##ten
huv
##156
∕
chondrocytes
adv
率
div
##hard
##ulative
⩽
trapped
微
76
##xb
prophylactic
prepare
nephrectomy
merging
brood
hypothalam
discounting
##atid
##ocr
slower
##ecutive
brun
stat5
discriminated
igl
##cho
##h1
represents
##idine
##点
疾
bonfer
zo
fails
perpet
read
reag
npy
window
scotland
о
αvβ3
permeabilized
##e2
ketone
##淋
metal
extinction
cod
##rees
##aper
expenditure
330
adiponectin
gb
slov
##accharides
qm
##amino
cataract
opposed
crown
##nov
companion
rela
rabies
adds
transplantation
mhz
allele
catabolism
roll
##lamyd
hypertensive
skeleton
##3b
daf
autore
chrys
zipper
marijuana
304
##econd
list
success
boundaries
advocated
secreting
2020
reported
intensification
consent
microrna
metatars
##rine
misf
fdg
##entists
periodic
##adiol
dm
##oss
##山
c4
pox
transpor
trace
a9
participate
serotonergic
neutrophil
rage
accred
soccer
unresponsive
destabilizing
##rous
bigger
moments
##ocytes
##osterone
membr
insects
adrenal
spd
months
##₀
122
##hai
provision
praz
##inos
evac
pif
communicating
muscular
transporter
urtic
endangered
1×
##trate
##ingly
##utive
##afts
mol
##oprec
accidents
##onn
rumen
bam
but
sali
nore
inflammatory
dendr
1371
biopsies
expanded
coval
succinate
##urities
unl
snps
mirs
highlight
antifung
##lett
downreg
活
scl
prc2
##odom
bioreactor
placebo
##esophageal
srm
repressors
##cf
##常
analysis
验
##ishi
accumulation
enforced
map
##pecific
supplies
∼
compressive
drafts
##life
##ocations
thickening
##尚
##apamil
asthmatic
##amily
michael
enantiosel
vec
check
##arp
submit
adenomatous
improvement
jersey
##为
##𝜃
special
amniotic
##duction
ewing
flavon
##001
suicide
polyq
aegypti
##27
17β
##eni
##岁
epithelial
##iler
132
##ane
hemostatic
btk
breastfeeding
epidem
archae
##ston
g418
divid
##actam
径
hec
epidemics
fundus
adalimumab
penicillin
struct
ast
263
workload
##fil
sounds
to
119
conjugate
bca
##ductor
epididymal
rum
older
390
ambulance
relies
rectang
standard
tele
cet
repl
bot
repeats
produces
##omogene
dre
apart
limit
lbd
lenses
ghana
unrecognized
composites
underw
superoxide
ii
前
again
centrifuge
problematic
219
##etis
adsorb
compliance
combinatorial
nox2
##bers
alleviated
constituted
submerg
h9
033
preceded
bat
mixed
##argeted
orient
processed
##iology
vocal
artificially
laborator
ucla
paracetamol
ℕ
##beta
subt
lift
rupt
kinetics
从
emerging
corticosteroid
mentioned
amersham
##ectamine
operons
##legia
luminal
gradual
yag
claudin
magneti
click
##位
sac
##ctive
acquire
semantic
bhlh
saponin
precede
##zens
considers
reading
translate
fractionation
topois
##atta
char
resuspended
##r2
petrole
worry
cpc
##ochlor
resistant
diges
##ious
mitogenic
##ith
4i
af
1950
usually
bud
rounded
454
astrocytic
##ortic
through
##г
supervisors
simulator
carcinogens
dpph
赛
##activation
bacul
##则
lined
neuroblastoma
##≧
tech
##fit
24h
##eton
outpatient
72
adams
prevent
##jection
de
wonder
##cap
cyl
bradykinin
pubertal
synergistic
bun
##立
fsl
##insulin
##vey
dsc
absol
deformations
381
##tins
scarc
parkinsonism
s4b
defect
shorter
chori
invaluable
##view
##tious
fourteen
spray
##idone
grah
diast
bronchitis
##联
anchored
##104
neuropathology
overlaps
##immune
go
psychosis
supram
together
##erated
##hel
integrin
yfp
haplotype
483
mbq
δh
sgl
着
sediment
defibrill
##uity
##≙
shows
rati
counterstained
capacities
3r
metabolite
gestation
quarter
agc
1984
cot
fluorophore
##ystic
dyads
mild
drift
∶
##cer
city
deal
confusion
𝒪
）
##erver
aberrant
##occ
imag
##iparous
##y1
hepc
mites
tann
extends
##ional
##aaa
pcdna
rfs
nlr
phal
atg
##bury
.
assumption
bovis
syndromic
##dl
marrow
beer
una
lingual
##agr
cll
attendance
uniqu
##经
tβ
pathological
weaker
ph
transients
ji
suitability
church
##print
colorectal
microm
scaveng
winter
​table
demonstration
##rogenesis
hsd
scleral
recognition
2d3
compr
multidimensional
##149
膜
vo2max
balanced
hypogonad
transducer
partitioning
backbone
kif
##param
04
gst
resuscitation
1080
bottles
线
##tic
##益
triglycer
mac
neutralization
##weed
eus
discarded
addresses
fpkm
heteroc
##acent
binge
plasmodium
ay
₂
##ħ
sur
comments
ethylenedi
hyp
security
grade
wheel
poor
##oti
empirical
vander
buil
restored
muller
##activ
undert
gov
occasion
clark
photoc
anaphyl
fbs
##aser
smad2
##jd
##z
microns
ankyl
pik
red
mitosis
uncom
fam
213
##anial
describ
##ath
bridging
acetab
dep
affiliations
generalization
gross
preserved
recreational
bmp
routing
determin
insult
methotrexate
qing
kor
##utaneous
##cens
ontario
pmc
mev
##erative
##enders
##ochrom
inhibitory
##ofrontal
##і
##ropath
shape
##uda
macrophage
sink
fent
##ozyg
emitting
2nd
adequ
jan
video
overestimate
vil
prominently
ling
tph
##eres
confluence
no
relate
further
nps
circulation
sedimentation
polymeric
seroprevalence
thous
purify
changing
人
fuller
∼3
cta
negative
whisk
checkpoints
labelling
variances
rights
summaries
trials
polyadenylation
itp
duplicates
1p
##assays
amenable
tracheal
397
##gu
##oration
cleaved
carol
𝒩
##ured
adl
technical
pairing
iaa
##uclidean
cmv
##jk
##auc
hpa
shortest
included
##uca
caveolae
retinol
sdh
replac
stops
319
proceedings
topoisomerase
增
##odynamically
m5
autops
demanding
##dna
##ζ
##oneph
hyperinsulinemia
ultracentr
amyloidosis
foramen
##п
discrepancies
class
unfolded
better
sons
dith
ebi
##orientation
##infected
ª
##alities
indication
celiac
limiting
##±1
##imeters
nephritis
##key
gonads
luminance
perceive
economy
imposed
microscopic
##ump
解
dans
escap
designing
sepharose
dele
p47
##body
whee
sus
impression
##istar
##opian
ovulation
##ecess
closely
能
pcdna3
vagina
reserved
fasted
6d
seat
amphib
##ucting
##a3
shoots
appreciation
metastasis
lepr
feline
behaviours
visuospatial
elongated
paw
ivc
organisational
heading
2009a
sulfur
##oar
computing
sch
gentle
hart
tb
rho
##oxin
ad
##11a
synapses
※
1993
oxidizing
##onstr
abb
scat
microtiter
##inder
quantile
trained
2005
conjugates
homod
guangdong
sct
adjunctive
grounded
song
##stadt
curvature
intrigu
##anto
calif
##inator
pc
interim
##eliac
proprietary
##mediately
carn
extending
audio
separation
≔
3a
ureter
hen
concer
tyrosinase
##ic
cheese
poli
scrutin
##del
participatory
igf
guaranteed
gfp
pills
##ysm
trastuzumab
twe
hydrocarbon
instit
psych
：
qi
acceler
ens
##ress
##−1
vn
neoplasia
genome
aliquot
angle
##urt
a20
##ifiers
##urring
antiapoptotic
ploidy
nogo
##okes
rnase
cddp
##uspid
potency
youn
hbo
profoundly
dislocation
nucleolar
sheep
neutralize
facebook
##onch
##∶
contacting
adrenergic
##alcoh
suicidal
bilayers
escc
awakening
##analyzer
unknown
societies
procedures
acuity
occurrences
predetermined
##μm
##1011
somewhat
##130
federal
pointing
thalass
lamellar
confirmation
complet
pall
infective
pediatr
reinforcing
forms
##xy
##𝒩
const
purification
##roscopically
ok
features
tractography
##1α
dissimilar
型
thick
##onec
≲
efflu
explaining
toluene
skeletal
2000
orai
ginseng
cooperative
destabil
y2
cup
##具
bases
jim
##117
pib
liposomal
suture
beverages
thickness
nem
bsp
thrombin
communications
pur
gases
electrical
congen
##控
##ostat
catabolic
ecmo
autoantib
##❖
harvesting
la
routes
##tron
##plus
proves
immunostained
microbiological
##ined
eryth
dnm
##128
磷
featuring
##oney
dbp
benthic
polyclonal
curation
modestly
##ult
##tial
commence
productivity
tumoral
disruption
slip
##tert
##eptive
debris
##mc
标
glycemic
compression
nadir
coupled
sub
hypoglycemia
ameliorated
416
cole
glycosamin
merely
phenol
ucsc
pollut
qrt
annotated
adobe
##yroid
293
mayo
¾
foil
correspondence
##ental
circulating
sativa
familial
practic
ipf
directed
##i1
duncan
##9a
huang
rorγ
patent
##etent
##iculus
##hea
thailand
yoga
321
cd45
##otal
##prazole
025
sudan
orfs
unexplored
danger
and
hla
reminder
som
intu
reinfor
ema
conform
afm
##ologous
glabrata
ctl
cough
##azan
##opram
microsatellite
##ialysis
realization
hydroph
salv
biofil
robinson
ventral
radion
heated
##cles
##istically
retains
completely
gener
quantitatively
arrived
quebec
memories
apa
footprint
##ar
oestr
drugs
##13
##d2
chile
##enhagen
##管
category
scin
relationships
##eds
establishment
##cious
parsim
dystrophin
some
fermentation
coh
内
patient
instances
##ius
cultivated
proprio
##合
extracts
placed
coiled
disciplinary
cotyl
##titude
##ourse
cimt
generating
425
tone
4°c
灶
vp
penns
line
moderating
deregulation
staging
##ality
mtr
competitive
##erum
##ick
veloc
##ifers
reint
305
anxious
catalyst
##手
apd
287
git
preec
guang
ddt
cfu
##odi
com
##ergies
infantile
ripa
lymphatic
rhyth
dilute
predic
##sp
efflux
##ocene
symptom
laws
wavegu
png
tst
##agog
regulatory
condensed
128
hcmv
cacl2
nationwide
histopathological
##phox
illegal
million
erg
index
recurs
udp
algor
pal
measuring
smith
aq
albeit
overestimation
comparis
exten
pathway
##症
##iffer
shocks
individual
##ɸ
yu
radioactivity
compensate
##ace
adjusted
cabg
podocytes
plants
6b
pharmacokine
unmask
##yro
preoperatively
divisions
blinding
chord
incision
breakthrough
hcg
##aged
palm
##ffici
4×
tbi
dependency
ration
##inson
disadvantages
disagree
rta
ind
neighbor
breadth
cycle
eosin
vmax
haematological
isomerase
##pec
numb
00
syllable
strategy
perceived
achie
etiologic
btb
syringe
purkinje
endpoints
nanocomposites
descent
##olved
є
iodine
affected
emr
##eles
vect
##f1a
vomiting
##otetr
nad
ire1
extensive
supports
topics
methacrylate
sample
1980
##274
##facts
indis
consist
hsct
outlined
s10
settle
orientation
##iley
precautions
haemodynamic
merged
##orph
above
‹
month
##tis
##illa
00001
##idity
crossed
egfr
ischemic
administrative
hs
dysplastic
pbr
athletes
defin
unex
crack
count
2l
questionnaire
experiencing
franklin
purple
215
akaike
leaching
mapks
##act
lfp
e10
ref
constantly
375
trains
##epid
意
network
bal
##reatment
##aner
##ata
没
##berg
pi3k
retroperitoneal
cerebral
nr1
wife
91
regress
symbi
355
ikkβ
income
phys
##ylic
xps
active
clav
chimpanzee
attached
senescence
take
##itude
mms
science
diazepam
accept
diagnostic
stalled
digit
clues
asking
##7a
##bling
implicit
aligning
##λ
progressed
##─
devastating
she
transaminase
velocity
adjustable
epigen
##parametric
ordered
readiness
ipl
etop
application
##cc1
encephalopathy
semen
##167
parentheses
meteor
accessions
##87
ascertained
tdt
surrog
##play
intersti
contraception
underst
##odon
pra
christ
brackets
ˉ
s3a
nom
##obenz
rural
tolerate
unexposed
s2
luo
##aster
242
desat
##ophil
fores
photodynamic
##ynchron
latter
biomedical
band
cotinine
vpr
gmbh
snr
##175
mace
tracing
intelligence
subscales
explanation
medicaid
biceps
##the
iss
ests
strugg
forced
popl
##bilical
in
symbolic
ngf
nicotin
february
cyp3a
accident
late
update
conclusively
fbp
fischer
piv
gsc
##uff
##thermal
mca
microsomal
fishing
##uted
saving
remained
mptp
ascs
nearby
favors
electricity
##rophy
neuropeptides
later
##acin
epis
lumen
##ignal
advised
##直
facilitation
nanob
fna
ohda
milling
collect
##ensities
insults
##apoptotic
perform
309
特
ill
trends
mch
yr
oedema
enterobacteriaceae
##udine
##idym
exo
##rowing
##₂
##olecules
fatty
prere
polyg
tetramers
eoc
viol
##ondr
rneasy
myocardial
eruption
commonly
rost
##表
couple
bai
secrete
们
particular
eluting
gall
##onical
linearity
killed
##adh
cigarettes
hers
xanth
##omyelitis
trough
'
grad
keap1
409
##rose
##umann
configurations
##zing
encounter
##otopic
movement
advanced
##oidin
homozyg
creative
diminishes
mwcnts
smear
teg
aure
thresholds
##imers
places
##uron
epidemic
caregiver
osteopontin
philosoph
controvers
alg
regulators
juven
fio2
165
primordial
perturbations
osteoporotic
nanocrystals
stg
granulomas
rabbits
jointly
ral
##顺
aspart
##ilibr
covari
utilizing
strom
##worth
##epithelial
bfgf
responsibility
cin
αβ
commerc
wd
##joy
##n4
##thing
neighboring
osteocalcin
teen
mb
##ivid
analyz
reliability
ze
defensive
assays
##ettes
rac1
##osci
bio
paran
##2b
harvested
quaternary
##ometh
detr
##ophilus
dyslex
liability
transduce
trachomatis
outlines
##as
##ogenous
prostheses
weaknesses
tbk1
spin
##oad
stacking
##aters
apl
paediatric
##onitrile
eia
radiological
heterozygote
deplet
shop
403
需
##yr
brains
##ĸ
xm
combat
complicate
electric
supple
cnt
dental
reliable
##况
conduc
graphs
approval
firmic
wisconsin
forests
isothiocyanate
comparison
understood
surve
resemblance
collaboration
molecularly
rigorously
anaesth
##al
carcinoma
##tiles
##fp
validation
assembly
dm1
##针
digestion
unmodified
chymotrypsin
##该
##uin
operator
hidden
mandible
biob
satisf
promoters
mann
sites
##当
restricted
transm
##jing
wherein
uploaded
chronic
myoblast
238
lacr
che
效
##ocamp
cyto
becton
cholerae
pigmentation
ι
myofibro
##elet
𝒲
mhc
259
clo
##s
proteoglycan
deg
⌢
##lyp
mediator
motors
specialization
und
##rop
rsp
tfii
adopting
##illed
204
macromolecules
##较
told
abscess
uti
cadher
分
thawing
ultrathin
speakers
surrounded
##outs
barriers
liver
stringent
##86
adapter
powders
ser
##ds
##etetra
##adzu
540
sf
abl
##uptake
35
influenz
lu
calculating
functioning
postm
2f
##inesis
pax6
journal
hydrolytic
zur
combinations
##肺
##enberg
##azol
hippocampus
aromatase
monotherapy
950
##onine
456
388
lyme
flank
require
experimentation
##₆
screws
mucin
tf
endurance
diap
exclusive
##core
pec
docking
unadjusted
tls
##aci
epitopes
schne
satis
ami
combinator
enterica
hint
##或
##ᅟ
reversal
þ
highest
##letes
functional
fc
wiley
chemot
ews
address
necessity
integrase
prox
trichrome
squ
##romycin
##ylamide
gelatin
inhibition
american
720
bethes
deoxyrib
antis
inlet
##liptin
vacc
scot
##53
##毒
enriched
smn
gfr
removed
polysaccharide
alkyl
##fold
clonidine
##rotomy
furin
deciding
listed
##ulator
erythro
mre11
odor
##osomes
gp
##ista
##bumin
stabilizing
inspiratory
uganda
##04
nco
thalamic
nh3
##170
acupuncture
532
##organization
degeneration
##yd
volun
basement
##albumin
zym
##fast
typh
refr
ahi
fvb
##atalytic
n3
kinetic
−
alliance
phospholipase
##odyn
assay
forskolin
##ual
haemorrhage
nanowires
edta
271
germination
l4
polyphenol
curated
contaminant
px
##hz
dil
bonding
capacitance
ifg
mol−1
abundantly
##依
indeterminate
lenti
p24
fumig
dentistry
##了
cuv
vir
puberty
unpreced
voltamm
##iques
euthanasia
##osal
capsular
methylated
##pi
repulsion
##etine
statement
##ialdehyde
##ʹ
⊥
stakeholders
mitigation
unmethylated
stic
lesion
immunoresearch
discriminating
cdc42
##¬
sp2
##porting
snow
kv1
sow
cg
##关
drp1
ext
muscul
pci
##同
listeners
wm
capsa
games
1998
discernible
dmn
##roid
fgfr1
##ocytic
##dehyde
collection
89
##ocyanine
##uctive
zealand
geometry
thymocytes
##arg
nish
d8
h1n1
spectrophotometric
irregular
##oacetic
##low
##vely
##nia
aband
myristate
##olith
vem
instead
h3k27
##aminidase
atrophic
pict
myosin
##ront
##oride
modal
proph
##ague
putting
flagellin
recoveries
##roscopic
afforded
fingers
##edema
descending
unsuitable
humans
initiatives
office
##agland
##iciency
##gl
feature
isolation
tlr9
expected
glob
##achol
discre
remodelling
amino
diets
否
##itive
##ternal
parsimon
spacers
nta
begin
tnfr1
##铂
elispot
hormonal
habitat
pim
knock
seropositive
kle
jul
≥50
aggregate
urine
##ugin
##iate
2009
necroptosis
一
mor
gtpases
valley
repeat
indep
##𝕊
dex
##yryl
circums
bell
bov
##atively
xs
neutroph
##air
adipogenic
siblings
impr
##549
msh2
nanomolar
tmt
recomm
##etal
pscs
intrap
montre
sla
intratum
progresses
##ampling
##oreceptors
##antes
stone
homogen
hubs
clotting
locomotion
outlier
##odal
aunps
contrast
cellulose
##检
getting
阳
hsf
entr
kg
kj
##hex
movies
curve
metaplasia
dc
sunitinib
##hinal
musc
##⊤
mit
defense
ssp
##ecyl
##yi
##afish
##总
dextrose
sparse
##ainees
u6
sod
dog
ait
propag
##acting
##9
##rication
##kii
reviewed
₃
nanor
triplicates
beds
argued
yap
robustness
v3
collagen
cxcl1
millions
distinction
sen
tens
transitional
lac
inad
##ersen
##itation
might
−20
mortal
enti
doppler
encephalitis
requirements
pop
questionable
polymerized
ina
##opoietic
minute
converg
##aturity
##代
∧
##inflammatory
basis
dest
##138
maximizing
cotyled
hed
##usal
simplicity
v6
fl
annot
##atility
125
subset
sra
##④
##患
unra
ecr
edl
barc
eigh
scn
podocyte
language
##ogle
syl
deposit
##icidal
depleting
##angiogenic
author
##ultures
##rad
wt
serca
urgency
went
##ectom
passing
##≃
diph
##oon
hamburg
underg
uh
membered
met
##ject
ifnα
##ects
chloroplast
aus
quer
intraperitoneal
ethiopia
##aturated
outre
genomic
‏
exec
dcm
performances
##esthesia
##ra
##ves
##amps
hematological
144
8th
segregated
##ained
oc
ala
aat
spiral
inval
anemia
monocytic
mug
shear
hematocrit
habitual
abs
152
##oprim
¯
classic
##p2
386
hereditary
s4
##tim
wales
298
##ases
toward
substantive
promoted
cardiac
少
##state
od
epib
operations
participants
stars
intim
⁷
fibrillation
##ospor
##ibly
##opsin
midgut
##encia
##brt
pz
##iation
dsbs
dried
silver
trial
warranted
inexpensive
intras
paro
deep
detrimental
p300
##embles
##olipin
person
trimer
refraction
dehyd
fragments
##eric
039
isf
##ake
ch2
abdomen
azo
proteomic
素
‾
##⊥
##thood
digestive
surgery
fulf
erythropoietin
##weighted
hoxa
feng
exhibited
ipsc
chloroform
##ytically
transgenes
occult
microv
alkylation
residency
041
legion
opinion
mom
##inning
genet
##ulates
##uts
[R]
seeing
friend
adolescence
talking
##uled
##ı
##pressed
gib
pigments
存
chromosome
##elen
disagre
变
部
clontech
shaping
little
##agt
##酪
associations
please
oxim
##arget
ebiosci
crystallized
##teine
center
mst
allosteric
早
endometrium
cochlear
101
##olon
moderately
num
developed
##iger
conductivity
ju
##posed
connection
brand
ires
##fort
following
retinoblastoma
situation
502
##isco
##也
##foot
mtb
objectively
perovsk
relative
epoxy
meso
##ibur
unified
synapt
isomers
##向
##osomiasis
¢
##not
561
tlr4
fibrillary
mers
##agliflozin
cytokine
enantiomer
selection
entails
chemoresistance
deeper
wounds
viscoelastic
##apped
##entious
asph
020
favoring
ligand
peptidase
##oct
logistic
70°c
proposals
ikkα
274
developments
˗
arach
oh
lge
sentinel
epistasis
artificial
heterotr
coimmun
panel
fibrotic
diversion
walker
delphi
tnm
##roplasty
absorbance
morphology
cellular
ogd
##omorphic
##reen
##ulate
adhes
macronutri
##atis
energies
worldwide
regenerate
mlh1
antifungal
##romb
##amura
nanofibers
stim
##aring
##ication
sedation
responds
ceftriax
genesis
ambulatory
clinicopath
bortezomib
##roter
compartment
termini
##ghai
coming
anthropogenic
stabilized
₅
endoph
discontinuation
fur
size
oscillation
matern
expectation
methyltransferases
malaria
flexor
phagocyt
disparate
plc
##±2
intractable
⌈
##tre
tunnel
。
stall
manage
contam
mark
itd
##psych
argues
700
##烟
advantage
expressive
ml−1
arr
harmon
microbiology
##imental
everyday
fibro
##ipit
##oradi
survival
##256
amoe
acinetobacter
hemorrh
##素
tob
##avity
virt
023
∮
biodegradable
lumbar
statins
aorta
judgments
reduce
##□
obscure
prescription
dunnett
convention
gait
platelets
##像
anaesthetized
##chair
##planned
chamber
b4
phen
036
lxr
gtp
neuropsychiatric
##ound
##ouse
as1
units
idh
lipopolys
230
anecd
cd62
uneventful
##ensus
multisensory
quantif
pharmacodynamic
€
pooled
clad
unbound
protease
candida
soils
microorganisms
qualified
biole
induc
##fv
##染
sund
##son
cartridge
spectra
##benz
##enc
##retinal
secreted
invasiveness
wool
king
##agraph
sg
rev
##istered
plays
strateg
⋄
abcb1
620
immunomod
photomicrographs
germany
implants
employment
##atum
ild
anticoagulation
cpp
282
anat
interf
giemsa
a1
tie
选
immob
overr
preservation
namely
actinin
##oreal
##enting
hypothesised
ic50
deformed
wean
##mog
too
sponges
##eg
vials
各
elevated
##h2
fibril
yo
iso
##osyl
##oxins
##ara
gz
ricin
memory
accidental
ensembles
##证
wnt3a
picked
complications
6m
##vine
##tiv
viewed
occasions
##ibility
##x1
multim
引
rin
##omethane
aqueous
##gend
##mediate
nih3t3
insufficiency
bmt
colonize
##ilton
ida
nurses
modest
subdomains
meets
av
greenhouse
personnel
promoting
2019
pach
##arboxylic
who
coronary
pom
##ove
neurobehavioral
carbons
##ophen
##acycl
wortmann
ttc
##athyroidism
##alc
##oa
gated
##albuminuria
492
##ogens
garc
di
erad
证
abstin
sax
therapists
emitted
lived
##usted
timed
offices
solved
##ccs
##®
fluorine
dmem
potentiate
##cess
lkb1
##entist
attention
xenograft
genomics
##天
excludes
¨
##ige
periods
omnibus
broken
perme
##m
pertain
anesthetic
queens
vivax
parker
pertussis
extre
##hb
create
sas
prototypical
##⇓
##ⅴ
##uates
##branch
##asted
##regn
488
meetings
direction
##ys
conclusion
较
##bourne
mrd
##hae
descriptors
defined
liquid
whit
##ura
chemicon
##ℝ
fcm
consideration
centrifuged
taxol
wolbach
leukotri
dca
exercises
biophysical
##tebr
republic
cbct
scratch
##ota
##ht
bacteriophage
ankyrin
skp2
hepatocyte
rx
�
indicators
pi3
##onto
attain
uns
wo
shaking
dispersal
##tein
lawr
therefore
##32
interfaces
##ophene
learners
tfh
##olab
##cl
##ln
##osis
employed
610
supplementation
focusing
myocardium
margins
harm
parti
hydrocortisone
homa
##af
else
形
dexmed
##urium
term
having
pax3
##arf
exhaustion
##⊖
monthly
perfect
predicted
rhb
factors
introns
initi
caro
defence
##tida
527
contrib
deficiencies
##343
chur
libr
##¦
##oglob
corporation
parp1
⊣
epist
epidermal
##igu
helps
##安
##集
capability
cid
nausea
##light
originate
##∖
sequelae
catalytically
neurobi
psd
要
that
policym
##c12
predator
##1c
microdialysis
gras
mdx
meta
##ancies
co2
bronchoscopy
##mt
elicited
bcl
nv
nfat
agencies
midbrain
##da
fsc
developers
kinds
##他
##elve
##98
dynamically
reductive
reciproc
hams
cleaned
cri
##ip
##ichia
affer
wells
zm
ocs
decomposition
dox
cycling
##instein
osc
target
pay
evident
mirnas
utr
logan
packed
leak
plane
approaches
islets
revert
essentially
elastin
##itism
synuclein
poses
possibly
extrahepatic
proinflammatory
##prednis
koh
satur
horse
mdm
machines
##igan
gonzalez
cem
polyposis
##ua
nitr
##应
##uctu
shel
initiation
nong
conduit
on
phylogenetic
normalizing
vertebrate
resting
epha2
dishes
##ided
##ref
##enoic
α7
left
bout
micronucle
mediastinal
bi
instrumentation
pn
impregn
burst
butanol
fabrication
hypermethylation
##oreceptor
morning
##agat
##ici
##ovi
engagement
excluded
belt
averages
##б
recapit
verification
meniscal
cd95
colorado
maria
testing
##ucted
colchicine
immunogenic
organisms
m4
without
nahco3
personality
extrapolation
solvation
##stream
adenomas
implementing
##■
parenting
after
51
##替
pu
chemotaxis
pren
thrombolysis
platinum
dimin
immunosuppression
underm
inver
elapsed
12p
encodes
291
chlorophyll
localizes
tracked
fibrill
waiting
arthroplasty
##398
##alges
moved
##peak
financially
miss
pb2
cd68
с
backgrounds
fgf23
ring
##pm
##far
ppa
𝒜
anxiolytic
methylene
##oi
ascites
college
prescrib
##ness
secretions
##298
scholarship
recru
americans
号
pres
countr
atrial
iee
##着
performance
unmod
vav
##otube
h7
tex
fisher
basin
aso
##teen
updates
circumferential
lith
migrants
##tizing
##fe
sc
screens
##oscler
constituents
tetrameric
oval
indirect
matrix
tukey
bbb
warr
closure
genotypic
sarc
kon
implication
##encer
gtt
girl
sympathetic
coul
##ي
governments
c60
gradually
iu
decoding
interesting
methanol
reperto
modular
mastic
##ogenes
nocturnal
emt
##ardi
dam
##amous
##ohydr
intact
six
conserved
inl
isotope
⌋
##por
arabidopsis
implantation
bulletin
constrain
##oyl
##uzumab
quench
choroidal
monocytes
##ixed
70
##rics
nutrition
fructose
tended
nkg2d
411
##b
transporting
amputation
##oxid
arthrop
agenda
96
##ama
aki
##˃
##±7
«
20°c
##ien
exploratory
solub
##enal
##plet
maize
##oblastoma
##01
framing
另
july
house
ulcers
国
之
##rogate
vsmc
trou
sia
calculates
endoscop
##清
chest
humidified
disequilibrium
16
enh
workshops
##20
residents
representative
##项
de3
synthet
##有
glutamate
homozygosity
immunomodulatory
cte
improvements
##iologic
8b
reconstitution
reabsorption
inorganic
##fm
forsk
otus
board
incremental
page
lactose
final
dermis
pkd
destination
smooth
numbers
multiv
compensation
##ments
preferably
tefl
stimulates
immunolab
##enoid
ess
bregma
nar
##ogether
##isation
cement
deacetylase
fitness
oak
##260
##set
onset
believe
替
colon
##vascular
romantic
symp
protocol
carr
##ecep
flexible
intraper
jr
phosphorus
easy
esi
##rα
methan
incenti
exud
sickness
##oun
##get
##going
digital
∑i
失
defec
pregnancy
promotes
##ophila
phylogeny
##400
rows
equator
glomerul
objectives
clarification
含
dutch
assumes
raters
jasm
lear
℃
##meas
510
424
field
##yclic
burnout
tsc2
##ophile
##usion
sle
##区
568
subpopulations
exacerbation
##inois
scattering
information
##idol
##urse
strands
anchoring
news
sentences
##ald
reinforce
##echoic
retail
turn
nanotube
ry
－
april
calves
##δct
yrs
##amin
spatiotemporal
phagocytes
139
oncogene
item
young
sealed
necess
premise
##oter
reservoirs
transmitted
uro
transfections
tct
nodal
myelination
##dong
etaner
belonged
fibronectin
##ase
##bo
immunotherapy
synovial
##len
chemos
e5
cecum
##omyces
involunt
lyc
kre
##0
vb
nanoparticle
creatine
antihypertensive
unclear
未
rhin
tr
disks
##hu
oil
fixative
bubbles
276
redundancy
western
##ether
##respons
admixture
medicinal
unre
dasatinib
incubate
##di
biodiversity
##gag
bg
rotary
attentional
done
r4
##inositol
cortices
2008
##dt
sti
t1
照
gq
facil
##⪯
bol
unaccept
##ethylation
##cii
couns
pg
seq
ctf
invers
诊
##源
burgdorferi
costimulatory
inh
##adian
##⑥
pil
##ward
concordance
levo
assembl
##gut
sociodemographic
sustain
##105
##but
##inding
##±
nik
##ushed
stopped
##rance
##uble
delta
##globulin
##cz
aggrec
##ished
eluent
prokary
pvl
##ts
发
pigmented
ntd
faced
ert
phosphorylated
epscs
candidiasis
tss
arith
##值
##pring
##№
investigating
tj
pruritus
bil
vwf
501
0005
##ilar
internalizing
pdf
##tg
undiagnosed
statistically
断
inversely
cutoff
showed
trnas
muscle
join
##cel
dendritic
polyamine
prf
vers
ampa
high
pgr
labour
∠
appreciable
447
seoul
micro
##激
dynamics
son
jin
predictability
##zers
gen
locoregional
national
structure
##▿
malignant
##odeox
proband
striatum
##152
##𝒟
经
granular
spanned
slight
occupies
bin
pup
##usively
mop
icos
epit
##˚
##2a
biosensors
necropsy
discipline
consang
4000
bilateral
lips
sequencing
catalysts
##₄
##aris
275
##je
languages
assign
abscesses
crab
##acs
accessibility
imported
solv
40×
##被
diarrhea
veterinary
flu
##olis
##oviruses
quartiles
dispersive
compress
sagittal
##axial
⊃
##ered
conf
identif
consequence
epig
laparotomy
##𝒲
ja
##apine
migration
nirs
##mu
restrict
##ensity
##uter
convincing
##adol
searching
∫
##rt
neuropeptide
viii
kaplan
texas
comprehension
nig
interfer
neuroph
##ertal
obl
endosomes
isg
restr
pupae
quantum
models
youngest
meeting
paper
machin
marriage
capturing
bib
minimization
##j
##ʋ
##ently
jet
evaluating
silic
anesth
##oxides
diamin
opson
prr
focuses
nacl
##iar
oligonucle
illum
ψ
bcp
decidual
剂
burns
coating
pex
u0
nociceptive
erythema
dynamical
##⁴
##ophytes
tars
scans
prioritized
contempor
良
ldl
387
##yroidism
phthalate
780
normoxia
neuropsych
##onsin
cat
lactate
mitral
coincidence
bark
weaning
days
five
campaigns
##486
web
money
##atonin
transported
respectively
##urrent
beh
familiarity
display
vip
apert
benefici
apparent
sequential
##ς
events
595
ℑ
▪
electroc
##培
nq
##0000
oncolytic
##ule
##vix
##继
##head
endotoxin
given
glycoprotein
##ution
optim
worked
##vol
postmenopausal
progesterone
falcip
##901
##ulsions
container
evidently
sif
return
oxidized
gln
gpr
##⍺
oncogenesis
##ills
ˈ
nanocar
fungal
refractory
unemploy
salience
shifts
strengthening
halogen
shank
##imid
msi
##➢
bcg
conflu
interfering
monocyte
##enced
analyze
4r
device
adolescent
nosoc
intravitreal
atlantic
spoken
fractured
s5a
nev
caucas
modelled
吉
gluten
bont
eccentric
gastrocnemius
vs
##vity
controls
methylation
dissemination
bag
##aggg
domains
liposomes
##ff
counterpart
sensitivities
examples
gun
fov
𝐫
portr
##amphenicol
extract
γ
thyrot
proline
oct
glycolytic
pest
age
hemangi
extrap
lang
intramuscular
##osing
85
freed
phill
nnos
##206
ass
##aus
surveillance
heterogene
##isph
cvs
ldh
abstract
reject
daughters
immunopos
brought
twofold
##asin
beverage
fluoresc
##plicating
art
blend
complicated
thir
neoform
monot
sciatic
反
nitric
waves
macrom
##bits
preferred
##omyosin
aerobic
syngene
zno
presump
pras
of
sampling
ille
##itors
##isk
hardy
random
##∏
cofilin
cooh
uremic
cereal
##强
nak
axl
##224
抗
atopic
til
bn
synaps
campaign
networks
yuan
riv
dap
surviv
subm
spotted
167
##77
##tain
fall
hend
schizophrenic
duration
##tf
scarce
##eptidase
lon
##tium
livers
490
##anger
petr
##ξ
calcein
justified
isi
helper
##ances
equilibration
classifying
sl
readings
##ure
ipt
cameras
erythroid
produce
wh
qc
distinguished
habitu
mmf
31
disulfide
brightness
studied
gets
worksh
tet
##aired
vg
##omics
completion
immunocyt
stabilizes
##anting
crypts
refuge
##ysis
ec50
absorption
neuropathic
principle
internalized
ecz
aic
corroborated
insured
##医
##uker
method
epoch
reposition
inequalities
pell
##med
mice
thior
maca
monos
##otes
##↦
creb
##ating
##kes
ink
characteristics
##asome
recent
org
ultrasonography
meningitis
##atcc
indispensable
##ide
placent
##ompens
deterior
foxp3
constituting
cyst
##oric
##erman
##imod
##otides
anionic
fuk
acids
classroom
##opath
collim
##1p
routinely
diphenyl
air
antidepressant
##omic
4t1
┬
⇓
时
𝒮
##ulae
actor
duplex
##tile
reconstructions
unravel
harder
lever
vegetation
implemented
##apor
##∬
off
scoliosis
g9
sensitize
quartz
值
##vern
##awi
appreci
##issive
recapitulated
378
discussion
dichotomized
xy
intracellularly
1002
40°c
analyses
##adesh
generate
entrop
##pv
rehabil
psychiatry
vice
##echs
ppd
csp
neurotoxicity
bert
ultrastructure
muse
pursuit
consequently
amps
rhiz
guangzhou
##imp
chlamydia
##otherapeutic
##61
epithelium
isr
e13
sequencer
##equ
etoh
##lv
##monary
advancement
guardians
anthropometric
##br2
##emporal
gabaa
invited
gsh
dot
coincident
plots
##uction
rapamycin
局
##ostom
tract
restriction
ϵ
perin
justify
deline
ppg
##tenance
ministry
unstructured
两
##anted
carboxyl
mind
pressure
##urity
mixture
m3
##ulph
palp
##ador
7c
microparticles
bgl
adipogenesis
adri
prevalent
guide
p450
phenotype
eighty
##igenin
evade
boltz
conservation
leukocytes
##开
rotator
vm
lex
plos
##分
words
##orb
##osamine
dedic
lonza
dti
nanow
phenylmethyl
trypan
##ah
##arb
imprinting
arter
slightly
substituent
dispensed
mell
##apsed
pp1
alveolar
##west
##western
write
##196
hyperactive
confirms
##ison
milder
executed
##腺
daily
regressed
δδct
##cripts
mitochondria
troph
alarm
##bir
hyaline
fron
sense
seldom
##poses
##equencing
platelet
entrainment
##fr
whether
embedding
ncl
experimentally
qia
subcloned
vps
los
dapt
presentations
##特
spatial
competencies
healthy
cation
aggregates
eyel
stores
##unt
mediating
inferred
##aging
tropical
interviews
prolifer
naltrexone
death
##typ
refl
grams
##81
rp
soc
##oca
##ocystis
tep
focuss
syd
revision
mathematics
harmful
residing
endocardial
##果
##ubiqu
enters
##k
focal
##essional
##uding
far
ammonia
##ⅱ
turkey
ase
mpt
法
##ally
prk
coworkers
##ip2
performed
hemodialysis
##oning
tenderness
##复
色
urolog
proceeds
latex
##injection
cycler
##iji
hepatoma
initiates
fret
uterine
protocols
##isson
doping
irreversible
supers
tertile
infra
baff
##idea
##azide
mec
consciousness
electromagnetic
tcf
east
engineering
comparisons
##through
##armac
reef
4f
vsv
raising
columnar
bhk
endoplasmic
leu
primarily
intoxication
hyperch
chang
##hips
##annon
like
component
##otics
erd
markov
nested
sensory
##isc
##apes
instillation
##ir
hollow
nurse
nd
passenger
##iments
stokes
students
β
##184
angii
microsat
nonetheless
primord
eae
045
denti
ucp1
##othermic
##ropo
对
technically
amines
phosphatase
benjamin
thermally
##argeting
##actic
##es
isoprop
##ishing
adoption
##hy
membranous
flaps
##235
pertaining
thyroid
mcmv
grove
persistent
hydrogen
hypn
religious
boxed
rnap
hall
deriv
117
intensively
owners
disaggreg
pheromone
proble
pursued
multitude
whom
deng
##opril
hur
fields
qualitatively
duct
##005
expressions
chromatin
##times
extrinsic
senes
##icle
rhog
door
datas
tailed
##etting
singh
help
presum
了
tang
lns
properties
##▒
tape
decomposed
macaque
leaders
cst
excretion
dimethylthiazol
##件
dec
##agulation
cholangiocarcinoma
boc
epic
##y
chond
##dp
aminoglyc
##aterials
inges
bang
assisting
nhl
neurom
##oproteins
brd4
remove
mf
products
metagenomic
economics
dipl
sug
=
tow
vertebrates
qub
obliter
nex
timp
mq
mavs
trap
ruled
phenylephrine
boiled
hv
##test
divide
subsequently
pumping
southeastern
tay
##arin
##enicol
##ilic
feeder
anaphase
pregnant
族
zs
precisely
tested
occurred
nude
communicate
fats
[SEP]
##4002
summing
rehydrated
antigen
mesangial
ribonucle
acting
durable
inevitable
flood
##扩
##othorax
endoth
igh
##othy
bow
##ocated
grafts
##ϵ
igf1
abstinence
guar
explanatory
isoflav
lam
##测
##18
clade
shade
supported
sudden
biliary
iga
prednis
multi
##icit
l2
##itamin
replacements
##as1
glutaraldehyde
buildings
spheres
##oting
foster
depart
phenyl
jour
mni
##plement
##fluorescein
##∘
nsp
magnet
##onins
##95
diffic
junctional
##ococci
aminotransferase
internal
##42
265
##ces
fertil
cpap
true
deviation
exercise
tuber
##usters
bevac
dehydrogenase
south
##cient
p15
dark
symbiotic
##ical
clone
e14
esters
dicer
##cope
me
dicty
##t3
indol
25
completing
⁺
preschool
columbia
sampled
pellets
##io
##yles
原
families
##ivial
preh
bmi1
phosphates
immunologic
canonical
suspended
hn
##ϱ
mta
frt
nanotechnology
##assay
lectin
constants
h12
irb
hq
rigorous
mφ
ꞌ
coordinated
methodological
consultant
ends
##排
enzym
attrition
q2
finnish
practically
biologic
##omatous
gain
immunohist
adjustments
technology
m
sponsors
sectioned
xiap
deserves
##ib
miller
held
kappab
tgn
##ostr
srna
capacity
##ipped
nocod
`
##d7
区
死
nah2po4
denaturing
##rag
##amate
mete
##ocrine
laterality
congenic
##ennial
psychiat
lenal
somatic
autism
pfu
chair
grading
biop
##150
ftc
spati
pga
pid
interspersed
papers
ultravi
stimulants
managed
sacc
smr
dispensing
rao
##𝒳
resta
fever
answer
casein
contradic
zone
disclose
compare
exceed
acyl
##pen
##arez
##cil
household
erp
##functional
½
##而
dim
entry
impulsivity
ionized
compar
##thromb
illumina
##242
ul
posteriorly
optimization
descend
##at
uncertainty
##olecule
antagonist
ah
##ello
sarcoma
##ineralization
spontaneous
nov
subgroup
rcc
##oc
##vular
breath
nonre
pear
branch
##ullary
esophageal
autoradi
dysreg
##ostatic
novartis
pfc
removes
neat
lymphadenectomy
##action
heavily
##inoids
synth
cbl
parasympathetic
pediatric
folded
immunocytochemical
##alk
made
##anine
##iflor
needles
ewes
##ades
##oked
nkx2
quadru
monitor
plant
shig
☑
##ucker
hood
repe
oscillations
##atrol
mention
##esy
endocarditis
histor
acet
collabor
lunch
villages
aesth
speculation
03
derivatization
mv
lars
iteratively
##ropylene
##vp
##ions
aggression
##286
##246
tfr
kir
neuroendocrine
suc
inception
169
pron
dce
##omial
biorad
inspired
mens
guinea
##less
##oxygenation
decel
danish
##▴
bon
urs
cyp2
install
p10
distress
blocker
##epatic
2×
scal
voltage
lin
##itability
##obase
grafted
scenarios
asympt
dispers
boxes
analyse
wash
cum
hipp
##ady
diaminobenz
parenthes
##el
gonadal
adenovirus
ebp
reflex
abcam
bend
##ignificant
intervening
tak
降
repolarization
necrotic
literature
resum
appeal
influenzae
##299
infil
inex
##pler
huh7
tegmental
mix
##enna
paragraph
#
gad
##998
metaph
hospitalisation
purchase
lymphocytic
192
spindle
##𝒫
##azone
h3k
preincubated
##iateness
pedigree
fingerprints
cef
coat
##othre
##usen
##nm
##esp
curc
loh
##amins
miseq
immunobl
##tb
uncertain
eac
##lysis
##−
posttrans
attractiveness
##idum
misleading
frontal
mm3
neutropenia
fap
tma
endo
##otoxic
static
microstructural
##综
##utamide
161
pivotal
・
biphasic
crowding
fossil
##473
##ancing
mrp
##anyl
propr
cga
frequencies
##yth
substituting
##量
ions
fib
fibres
##itus
##tra
planar
##cv
##iles
firmicutes
guanine
ℳ
##therapy
##感
dentin
censored
##mias
include
weight
providing
安
ba
poland
exploitation
ward
langer
accounts
logarithm
th1
fractions
u87
pheochrom
##crt
arisen
iol
mesop
##am
lim
akin
dependencies
tackle
ttp
regurgitation
ota
evaporation
experiences
##ascul
cytok
mechanistic
力
pans
gag
counterparts
allied
apic
cardiorespiratory
广
metastas
exact
aneuploidy
licl
crossing
gear
##选
pmsf
synten
##q11
##ulsion
substantially
##ident
aspar
wbc
##urb
lub
‡
glioblastoma
##osi
tocopher
liu
fsh
emb
##100
ctp
##ochromes
bacteroid
imp
epha
26s
÷
##ematous
logit
recep
replaced
18f
resemb
peroxisomes
amn
opportun
priority
spanning
fri
repeti
founder
stimulating
##orhabditis
hysterectomy
passage
##otropy
elast
182
##ender
2
unpleasant
ab
aur
##fection
amyotrophic
earthqu
infectious
1100
conformational
##uchi
adipocytes
subcellular
455
idc
max
−2
flox
dollars
述
tg2
hypothesized
coronal
eman
##rocytes
yields
offers
dys
orthopedic
payments
analyzed
hemolysis
pre
highl
flp
##rex
legend
p19
stratif
naa
##pre
borne
##采
xist
revisions
perine
verbati
chromat
bundles
specify
##越
spectrophotometry
welch
hughes
cardi
gibbs
svm
lum
感
topology
即
astig
spectro
undergo
##iently
neuroc
pacing
inhibiting
##icus
citr
##opeptide
œ
sorption
cpr
azithromycin
partnerships
robotic
techniques
webs
optimize
staphyl
032
hemoglobin
medians
disch
owner
hydrated
brucella
suff
craw
ctc
littermate
##志
probing
arrested
hatching
crime
##acl
centromeres
unhealth
heavier
distinguishes
analysing
comprom
##ec
cxcr3
ensembl
cytokeratin
ebov
preced
formalin
bubble
fasci
𝒳
types
##ystalline
##┴
mapp
h
##705
##a
ags
pancre
##tidine
继
##otyp
1c
access
immunocomprom
##frame
repositioning
depolarizing
##ets
select
expansion
##£
endocard
5x
aspiration
fibroblasts
neurotrans
tmd
reagent
##ophilic
subacute
rds
affiliation
temporal
mitochondrial
##rio
drain
435
conflicting
stimulus
oils
##avir
margin
rule
##公
emerge
##级
##171
##nett
conceal
arms
##withstanding
responding
den
##enes
ridge
##活
##79
centrom
##约
beg
unaltered
reflections
dissatis
opa
441
还
destruction
stabil
pathologist
careg
##lated
alth
𝒫
synov
口
##色
erosion
##graphic
fair
impressive
expans
1e
spent
appreciated
investigates
##要
bv
jb
##uments
##tead
pseudo
palatal
slow
defects
dfs
ias
##psy
##iously
value
extravas
anger
variations
lope
ℓ
trigger
spaces
dr
chimera
ards
infarcted
##eno
##oor
eligible
escrt
publ
microenvironment
cocaine
##olism
subarachnoid
illustrate
rotavirus
hod
mal
immediate
fact
naphthal
##ochem
##vitamin
nod2
berber
##adine
alternate
敏
innervation
##enger
registered
brca2
restric
##ofen
notion
##entia
detach
rosc
immunophen
tissues
inverse
gravity
##esh
dow
ch
lapse
correction
345
##μl
aliqu
##mon
town
narrow
##earch
≥1
该
colch
aps
baltimore
glycoproteins
casting
dosage
submuc
alk
reader
detection
ea
plaque
##ight
anomalies
semiconductor
relie
thp
exocrine
2010a
dosing
second
centrifug
austin
alve
thirds
stamp
cameroon
contral
pam
methods
bitter
neovascularization
constit
habitats
hypercap
hatch
erythropo
##ives
coales
##xt
##mates
030
promising
epilept
educ
nestin
accep
crispr
abolish
customized
histones
dextran
cholestasis
females
##yg
synchrotron
comorbid
##urn
##trig
##ived
scenari
newcommand
##issa
unrecogn
代
deaf
decompens
##vr
narc
dpf
brg1
rsd
wavelengths
##do
##pting
unim
##fen
bmdms
lo
##xime
##年
##olium
label
limitation
ivf
##afil
southeast
##ilized
##71
##4b
dictated
##γs
hepatic
cea
##osexual
carboxylic
ep
‭
setae
phle
6h
specifying
borte
42
##band
rcs
##x2
##day
rot
ql
noti
cd69
homogeneity
##nand
nonsteroidal
tree
psoriatic
vegfa
aurora
##机
immunocompromised
glioma
italian
pylori
serve
##ovas
chiral
amy
114
holo
junctions
ignored
precludes
##urf
##octoral
##pg
mang
epicardial
determinant
acidosis
manufacturers
aeg
dorm
conspicuous
enzyme
##ritic
extraction
lup
prps
##azin
lipogenesis
式
negligible
viability
##osarcoma
##oplasma
rankl
##arged
zn2
neuro
seventy
hairs
ingr
ĸ
▴
thyro
会
##ika
m−2
housing
##utation
generalizability
indian
##udinal
paucity
148
transport
##488
altogether
recipient
clip
priors
##ings
isra
##ℐ
##apopt
pin1
arp2
herbal
⿿
occlusal
positi
bilaterally
phenanth
stroke
##time
pcl
elaboration
hcp
declined
##③
much
erc
convolution
morbidities
mediates
##ographic
release
##agic
destabilization
##187
comt
bioavail
radi
2030
microb
##ethanol
desp
seizures
veterans
##jug
exchange
##⊔
##tian
england
caus
structural
##bens
boldsymbol
##endorf
clarity
viewer
hered
##fo
speciation
trait
primer
##以
alt
##ophageal
comprising
proteas
bl21
number
replacing
iowa
unstable
##ochemical
avp
gpa
##olyticus
empir
zoster
prest
##uis
194
contain
dict
w2
3x
fairly
##ceptive
##imetry
overlay
doses
duplications
armonk
ud
##sulfonyl
##48
116
scanning
均
moderator
##ei
pyrene
guarant
intrad
prostagland
albumin
##anous
##393
hlh
mpc
transcription
multifacet
macroph
296
h2b
16s
##kines
observ
inves
##oal
downloaded
p16
nlm
##erea
bears
mediterranean
##osm
##ubin
dichotomous
antagon
usage
hatched
selecting
reimbursement
pestic
µm
p3
calcified
topography
comm
compon
insular
reh
desatur
ctcf
modulating
##核
##artis
featured
growth
##itone
##gb
cyt
avr
xa
bup
##work
profound
η
t0
photoper
fibrosis
female
ucb
##oprost
involuntary
##etra
azide
bul
interface
ram
##oors
160
##⊗
ca3
planned
sulcus
metalloproteinase
reg
##intestinal
##asmic
401
hemorrhagic
unavail
reprogramming
reflectance
scheduling
perce
1037
##从
##目
antagonize
176
contigs
urg
large
myh
occurs
spiking
physically
850
plantar
仍
offer
mcherry
##bf
lak
permits
metalloprote
stated
treats
theor
0
encephal
织
asynchronous
solid
1981
##ometer
tea
monkey
flow
mosaic
actions
eclip
ℐ
##46
neurologic
tailor
georgia
χ2
severely
⟨
jnk1
involvement
ray
##fa
##ember
##atide
hco3
vasculitis
biosynthesis
unexpectedly
ssb
nyst
ovaries
unhealthy
个
gaseous
positional
##olytica
𝒟
photographed
perinatal
mdp
cfp
depos
##𝒞
react
##﻿
membership
##∞
##40
biotinylated
##ley
isothermal
klein
mep
hens
hyphal
form
analytes
metabolic
##iliensis
##rontal
##onald
##ios
styl
surgeries
inaccurate
v4
rl
cryptic
polluted
##ympathetic
cours
presumptive
bars
filtration
##↗
thinking
##ative
demyel
inaccur
stom
dw
guanosine
tamoxifen
gluc
synchronous
##ℵ
stiff
phenylalanine
fd
##ini
ppis
chx
##oscopic
tsa
honor
cerebro
phosphatidylcholine
lowers
links
nec
cml
##109
000
persp
##85
ire
retr
abrogated
phytoplankton
##yph
aneurysms
opportunity
a375
##殖
allergens
immunosup
integral
##arboxyl
incidences
evaporated
meyer
observe
temperament
dependent
myofibr
oscillator
biot
coal
disaster
trx
##icious
##onom
94
##中
amsterdam
europe
acculturation
##omal
##ˆ
masked
mns
conceptualized
parad
advantageous
survivin
moh
cel
spheroid
spar
exper
crystalline
##nb
vocabulary
##能
carlsbad
braz
ach
reduc
prostaglandin
shr
日
##ulture
点
ascorbate
dilatation
na
hither
ril
biomarker
strokes
∓
##oke
balloon
happens
losing
pyramidal
pparγ
representing
##▲
##arbox
sevoflurane
periton
resulted
biomark
syt
##iet
malate
unaff
threefold
##008
scaled
judgment
##ª
generally
private
opioids
##angements
evaluate
##inations
chose
sensing
exhal
segmentation
wb
rhythms
indicates
defic
options
steering
neuronal
operon
##bred
communication
##2
deploy
tib
sun
##opically
neocortex
##itarian
##ury
μm
pso
handling
carolina
advoc
snack
##uf
requisite
更
##use
var
##pan
hmga
viremia
##ocent
酪
dotted
𝕀
gor
pdh
tips
##oic
##ϐ
tension
tio2
##amb
##atology
emuls
contributors
##insu
##194
app
##1b
##isciplinary
153
devast
##即
##trib
spons
##line
aggrav
##是
fluids
consci
##ashi
edges
gv
vincristine
ortho
##ift
stimulations
##ac1
166
##uct
tams
ici
reas
##acchar
allow
##ru
courses
matching
mtorc1
complexity
coexpression
keratinocytes
bursting
connecting
sperm
recycl
worse
##eling
singlet
identifies
violent
hamb
##aphase
##ivacaine
c14
wallis
aldehyde
construct
hun
autopsy
##away
wine
antin
##¼
insertions
##ː
agg
r8
acquiring
resolution
cmc
concl
##oser
back
##orfer
vene
caa
nud
scap
rab
hig
kolmogorov
cases
doublet
homogenizer
jensen
##ipitation
##ococcal
strains
##wood
remod
puncta
##tigraphy
##ither
≍
unambigu
5ht
axons
chk1
calor
roads
flavor
dichloro
lep
immunor
carbon
speaking
thiols
supplements
puerto
pyr
cryop
##auf
rank
5°
egr
##养
##ion
mania
metast
environ
assesses
##pro
##𝒯
6f
##umenting
##ea
40
果
spain
membrane
agitation
euthan
enfor
smart
zhao
##atosis
bk
##organized
##alamic
actors
consensus
subjected
hygiene
spasm
##ifiable
mnp
h37
ator
##3p
mediated
性
pen
##od
hsp70
x2
unsatisfactory
cα
naked
reconstruct
separating
hydrolysis
selective
##明
codes
##acute
##pers
forearm
undersc
shor
nymph
quick
##uloskeletal
able
municipal
visualized
pth
jurkat
angi
lexical
coun
gh
##sis
motivational
##atif
carl
predisposing
##grad
##主
carcin
fertilization
propos
##ʻ
manufactured
bovine
075
ⅴ
##hi
piezo
exercised
hispanics
ung
oregon
mpr
steep
gondii
caco
orienting
##formation
dialys
distributed
9a
phosph
connexin
municipalities
##ellation
addictive
##for
##upt
##
intell
acrylic
¸
fragmented
⁄
hypere
contracted
reality
以
secre
##plates
phot
awake
exacerb
##评
nr
rhizosphere
achieved
##inic
##pad
inducer
per
puromycin
stereotax
##不
##hand
##plan
wilson
isot
schem
##mod
wf
##enson
##局
trimmed
glia
abundances
##inance
f12
script
polyst
##ethyl
kyoto
##sulf
researcher
lawrence
ectoderm
##tically
opaque
##x3
correl
##odine
international
##oading
##ophyte
eb
scores
demographic
insoluble
anthocyan
seeds
gaining
ℤ
nitro
fluoride
bona
extensively
osteogenesis
uncor
##ola
ﬄ
##insically
2014
##ilities
extracellular
fda
109
单
hrv
##gic
393
v600e
haloper
smcs
hanging
limitations
##ozoites
despite
threatening
##yseal
median
hoechst
aav
traff
paraffin
biggest
##mitted
microbiota
robot
estimation
bioinformatic
hindered
contribut
evaluation
percutaneous
##tail
##θ
alcoholics
alkaline
eps
anatomic
reflecting
toronto
neu
pms
##①
处
msec
theore
how
na2
e4
bpd
cw
diseased
ʌ
ifit
motives
employing
##ø
exacerbations
ets
##γ2
stud
zim
tak1
centri
027
驱
##信
##及
wise
chloride
modifies
produc
##uce
biv
impulsive
eyes
##oidal
deflection
aver
clostr
couplings
therap
将
6000
r
website
extensor
##lycer
凋
envelope
##encl
corpor
stripe
hypothetical
impurities
interaction
diverged
macrol
speed
##2r
例
monophosphate
antib
##192
granul
shallow
undergoing
grids
reliably
multil
sat
gym
numer
apc
controversial
misfolded
fractional
groupings
snaps
strongest
##inki
##aliana
from
dormancy
ont
subregions
perf
elements
cytotox
mh
close
extend
synovi
progenitors
##yzer
##bus
ventilated
transparency
wolbachia
preferentially
lineage
inguinal
utp
##用
vol
ruff
parall
##axel
owing
ks
accessed
pae
3β
transcriptase
sert
jar
1mm
escher
unco
still
pharmacologic
exonic
orai1
gradient
##w
##rospinal
raman
##ime
nod
dispar
council
确
##duced
nx
##uing
increase
eli
embolism
##ictional
dbd
##月
concern
glycosides
r1
chemoattractant
venus
intubation
biogenesis
##akis
carri
microglia
##elves
ms2
directional
jc
thought
subf
##oxan
carrage
chic
##每
##ectiv
it
kines
coverslip
complementarity
conspic
##ad
##562
buffering
ischaemic
normalize
tests
adenylate
km
##ening
##mel
rns
osmolality
##此
##ina
qa
vmp
bangl
##esi
##ifer
mellitus
chemokine
##igenes
koch
excitatory
mif
scavenging
genic
accommodation
cytos
instructions
joining
monotonic
ggc
wavel
ug
variable
employ
geographical
conformation
regular
conditioned
pie
vamp
ketamine
potassium
别
infras
##oxy
constituent
outer
bats
vegetables
cd73
mansoni
bron
mia
restorative
degrad
##y2
includ
##rosine
##uck
editors
archaea
brs
financ
##kin
hyperv
magn
pipeline
##ause
satisfied
##ately
firstly
hindbrain
launched
heterozygosity
≡
dealing
tails
hcs
incidents
aureus
nct
baf
disabling
##aminophen
spread
lignin
exce
treg
∷
##ging
cost
localized
##ietary
​fig
satellite
predominantly
grafting
##duc
conspecific
##opre
##ologia
hsps
my
evasion
##anced
crosses
houses
specialist
chorionic
##related
影
era
##⊧
⑥
adul
transgen
sensitive
glycosyl
s2c
##itol
tubules
caspase
commonest
cj
enroll
dithi
1991
##atiles
iterations
7th
opsin
##omeres
##pervised
parental
##ater
切
equivalents
apps
compelling
voc
unavailable
p2y
##meth
##1r
flagella
predom
511
specification
immunohistochemical
##arine
lid
parath
acth
mixtures
fals
artery
independent
behave
vegfr2
extrusion
##zomib
assess
horses
γh2ax
##随
transgene
musculoskeletal
dendrites
spreads
interobserver
hag
##ekeeping
chemopre
其
##ocol
##aind
drawn
solely
##ower
metabol
cb
##一
bandwidth
prospectively
schooling
∼2
storing
’
41
т
blocking
wnt5a
covered
medline
storm
##orrh
ibr
nmdar
atr
##iferative
##ice
rew
cryopreserved
intro
acetonitrile
##⊑
##olys
incidence
pine
helicases
##ϰ
followed
works
moderated
civil
##┬
##row
ce
cre
vig
hy
##zhou
况
43
##ytoin
cofactor
##box
ves
##酶
##∈
unsafe
fing
scre
harbors
intrahepatic
prepar
g5
oxidation
##titis
convinc
##⊠
##quinone
serogroup
0001
apex
pdm
promisc
##ank
killer
##isen
lacun
##172
midw
salts
bayer
recruitment
monte
##ahan
attraction
¶
acetic
foss
◦
nid
dss
ipa
trehal
ginsen
attempted
radiographs
dmp
2n
##ilden
⇑
seman
##omib
igf1r
lank
csc
ap2
etoposide
66
cerc
smoothing
buck
iec
echocardiogram
241
damp
transgender
john
##hal
upper
##function
10×
physiotherap
alf
##☆
##olk
retro
preventing
ninete
general
crm
##hire
##amycin
##oga
##ran
myometr
insight
klf4
swine
##urg
central
##istinguish
##mun
story
##brand
translocate
incidental
pockets
agents
csf
encode
332
##etries
licens
missing
exceptionally
boh
##fb
god
giant
orthologs
nl
##urons
von
##apatite
##ecium
ly6
##tronic
##wer
dcs
densitometry
##imoto
##mg
bt
periplasm
##arcomas
distinctions
xu
群
inst
erythropoie
reveal
nonsignificant
ev
paralleled
iri
##uitr
univ
1j
plr
decoy
historical
particularly
litter
##awa
ceramide
##ary
##tics
transcrip
cd
caffe
stand
pragm
##ologists
△
anxi
doxycycline
electrons
settlement
certainty
##疾
facult
368
##268
died
##amic
contraceptives
comp
assistant
antec
utah
edition
neurosurgical
advertising
superdex
gastroenter
癌
cdp
##qaa
lactobacillus
allevi
healthcare
chand
##ighting
##olymers
switching
diminished
roh
4s
resections
temporary
##urface
investment
mosm
##ester
climatic
cl
urinary
5h
custom
strip
editor
perl
453
##elly
oncop
##°
##truct
hous
cereals
socioeconomic
##1a1
试
file
mem
hemagglutin
＞
##oxetine
lane
##okine
υ
##ocyanin
ga
epcam
modification
gga
manner
enz
simulation
##151
emerg
##↔
lipopolysaccharide
silent
beetle
joseph
susceptibility
localisation
##rm
pharmacists
##poration
retin
670
exposures
##plastic
axes
hypothesize
##eder
##onic
favorably
norepine
refract
transiently
mri
freely
rap
bpa
##甲
dominance
pseudogenes
doc
reproduced
collision
p12
rear
pv
directionality
endang
wellcome
jew
##↓
natri
shoot
anp
faecalis
neighborhood
biobank
salinity
tregs
ŋ
##hog
##tered
cerevisiae
##capes
hypercholesterolemia
avoided
##oxib
planting
##fulness
##ensory
extension
ich
heads
##ω
unevent
hydra
##◆
fixation
contraceptive
errone
autom
referring
que
induce
phenotyping
##ral
arres
byproduc
neurochemical
##night
lr
parac
##athy
malaysia
miltenyi
durability
cones
ec
tertiles
fragile
reconstit
##phere
sfr
mammalian
##enh
particulate
elicit
manufact
appeared
##anthin
stroma
restor
host
##ques
apoe4
honest
mcao
flip
##requency
##infl
exclusively
##amination
noradren
h2ax
specif
purkin
##obic
##idia
##alis
##⋱
methicillin
pdz
independently
mapped
##aked
existing
preadip
oxygenase
periodically
sheet
top
triz
⊔
358
peters
adaptor
dls
paf
painful
pacific
##anil
##em
relevance
located
permeability
##ari
intraventricular
trm
start
ara
##eled
recom
competence
wind
︷
microenviron
prototype
hochberg
##arge
yers
458
testes
##kov
originally
deacetylation
emptying
authorship
fluconazole
radiograph
noct
concept
achievable
potentially
endotracheal
steatosis
favor
tong
contingency
得
##mit
representatives
mbc
fpg
punct
superconduc
home
##aware
似
nvp
duplexes
352
bur
acc
##isting
vacuole
chron
fabricate
facilitated
alleviate
differs
watson
##▪
pain
attr
acceleration
血
##lational
##nh
##nea
envelopes
t6
edge
tumorigenicity
motile
contextual
except
cantile
280
dnmt3a
anc
voxels
##实
dha
manifestations
##ument
myotubes
##𝒥
recons
nickel
palind
tangential
mononucle
##aceous
放
##endothelial
fq
depressive
beams
cdnas
##利
dair
aut
reti
brown
destin
##oprote
layered
sevent
##ocutaneous
csr
tightly
epidemiologic
empt
amd
##exin
##acted
pcp
137
thematic
ol
fabric
streams
##择
##床
##唑
unambiguously
##129
paradox
##ynamic
ver
nep
##asth
wounding
certificate
##til
dun
exogenous
##ifications
cq
nmol
accompany
purposes
achievement
complaints
tular
##ellite
##agement
##bry
##ynam
cooperation
ano
epigenetic
anatomical
514
⊂
dod
false
formulated
gata3
minority
##gcc
##会
snp
noisy
admitted
postd
refriger
assembled
immunocomp
sexual
##wide
suppose
##ovol
dysp
compute
square
brazil
iav
ppt
internalization
closest
##bm
article
favored
##min
catalysis
aids
008
understanding
surgeons
flavonoids
##oids
puzz
很
antioxidant
##aken
reactive
vertebrae
##iph
hpr
##iral
exponentially
##ounce
##arch
contract
empathy
1alpha
wave
references
chag
##amed
normative
sav
lister
hyperoxia
eosinophils
cape
##etric
clamped
biosci
##ography
mab
integration
applying
ℝ
returned
colorless
direct
hyal
viewpoint
rosiglitazone
proven
##uberc
bilingual
##初
##ification
positions
##ieties
accounting
##du
formulate
strept
comfortable
gm
scarcity
tremor
##olase
ingred
sw480
目
promot
220
outward
eczema
##cin
plans
4c
hallmark
die
screening
cro
pnp
incomplete
additions
camkii
##iter
##uber
crani
wearable
confir
syk
曲
##ellin
##atag
5d
zeol
##iagn
tv
ellip
engr
bioge
##vt
capabilities
##agen
jw
microliters
clonal
queried
nutrients
periv
##ho
positioning
unnecessary
classical
conjunctiv
##adily
##standing
ia
marks
elongation
http
multifocal
δp
##ordant
##次
keyw
thym
mrna
unusually
replicative
reward
chitosan
##iological
achilles
beneficiaries
attach
outside
志
heparin
endoderm
basket
graz
organizations
359
xanthine
symm
##acao
aggreg
imping
axon
mirna
respond
氨
dld
59
##行
patch
dpa
##igel
oat
chb
neurites
esrd
dry
cavities
filament
zoonotic
503
##tier
afterward
tolerance
ache
algae
fuzz
ile
bone
discontin
disparities
assignments
parent
lavage
synech
fmk
candidate
tubul
##178
movements
elite
dnmt
outper
2003
gibco
neurogenesis
3m
threats
whites
spher
doug
##ers
gard
flora
##独
##rec
avoiding
asp
achr
##sw
##itch
laparoscopy
oro
##⧧
##ew
ltp
abc
neglected
##acic
lakes
cloud
draft
abstraction
##1213
##少
benef
serology
carboplatin
##amyl
##icking
congru
peritonitis
epistatic
bath
mib
franc
ihd
anal
association
##acts
percentiles
strengthened
##onia
ny
suspected
mrl
predict
172
inel
##吸
counting
594
257
oblig
美
##rons
##91
pc1
should
signific
intermitt
seventeen
ireland
exosomal
quickly
thal
shoulder
ascertain
vertebra
cytometer
stoch
patches
inhibit
∎
bind
##ums
wound
acn
bisphosphonates
subsample
mgmt
erα
##reek
##iment
##lson
##land
taq
##201
analogue
maxima
##omotion
circulatory
contrasts
prof
forcing
##sh
ggg
##05
pt
##oons
monoxide
##gat
grooming
accredited
cite
##ak
##ili
hydrophobicity
regulation
野
simpler
strength
索
selectin
##one
miles
多
curriculum
reacted
##续
epr
pelvic
profil
facilitating
fibrom
coast
disrupt
bloom
stirred
ft
##porated
##entricular
##imal
antif
brl
peaks
sul
hek293
cdh
##chl
pc2
##field
crosslink
imbal
grassland
dimensions
broader
scf
syndrom
upregulates
##25
analgesics
encompasses
transduc
ch3
catalyzing
troch
₀
syntaxin
clp
ili
c8
##174
eyfp
##rid
##h2o
belonging
##ectomized
##℃
handled
cbd
unm
inadvert
reasonable
incorporation
forelimb
##itect
assimilation
##agers
hist
centim
##afs
cts
surg
difference
pathogen
amphiphilic
##tice
team
capillary
volunte
438
tdcs
##ict
bouts
##ues
σ2
corecep
disadvantaged
##𝜖
repressing
coping
##段
diffuse
244
ezrin
catech
spreading
##并
##glycerol
##juana
dhfr
cohesin
material
kumar
dick
carls
impro
credible
##ce
summar
##andom
##见
##rophot
mycoplasma
##完
baker
valid
stev
recurrences
falls
proteasome
pharmaceu
##c3
428
automation
⇝
frag
μmol
daughter
##ophilia
stroop
behaved
tlrs
10°
diluted
harbor
interventional
kod
fmrp
trophic
celec
fertility
dynam
ya
design
##fox
110
◊
trimeth
##细
arsenic
career
##ontal
exposed
chimer
nico
projections
##arians
electrospray
episodes
eligibility
##edia
phosphoryl
hypoglycaemia
##front
investigator
amid
intraoperative
##ofil
mapk
##ensions
elemental
##aracter
tit
##列
binomial
energe
inversion
##utes
porosity
functionalization
asphyx
cytochal
holder
95th
organoids
ambiguity
swe
##annels
crystal
##∥
##heim
sphingomyelin
pab
##urs
denote
##⇌
explicit
ses
visu
proteoglycans
tmem
cubic
pyth
##irus
bu
##imetric
peculiar
ε4
actinobacteria
rc
funded
##roscop
v7
✓
ly
pten
interleuk
neurological
##otype
chelation
##roke
assumptions
mirr
strata
##iensis
delivering
neun
temporarily
npcs
aphid
##biosis
calcification
##elial
进
##ulans
phonon
inhalation
##statin
##ophagy
aforem
##ket
##rolateral
phones
cage
constructive
模
gab
##arcoma
maternal
proliferate
##yalgia
##obiology
simply
##infection
danvers
ς
nitroph
##aglutide
##mine
##ermann
organize
established
gy
##ophor
affili
bub
rehydr
agreements
rq
disability
##微
graded
##种
##k3
icm
##burg
##heimer
opportunistic
dates
corresponded
capsaicin
identifiers
fluctuating
repro
owned
##udes
anovas
pill
navigation
pll
supine
开
challenge
##arity
deconvolution
##urance
##ymbol
atherosclerosis
##graphs
rescued
sirt1
melting
cationic
obes
singular
reads
garcia
integrate
wright
ⅱ
externally
##ouses
milliseconds
##ipy
reyn
ae
apob
≺
tubule
bap
underway
##ono
hitherto
minima
##ocor
shutt
##kyo
##ν
bever
kerat
animal
##sten
##istronic
##ya
mum
truncation
##onous
##ǁ
heights
##态
nonf
tnt
entor
agree
overlooked
desulf
##aginous
##stein
intermediate
multiplicity
##死
##¨
prm
wet
maternally
arachidonic
moral
##ball
rumination
##trans
basophil
pd980
fumigatus
noninvasive
grb2
human
##ched
##americ
alive
¹
acidic
##neg
failing
quite
##ols
##102
30°
distorted
things
feasibility
readers
##pyr
unic
neurotrophic
modulation
fourier
skin
ptpn
##ulation
dendrite
specimens
menstr
naph
motion
##orous
nifedipine
slc
disconn
virtue
##loem
##err
constr
##inter
sonography
flc
ccl
ctnn
##lessness
whenever
cellul
zeta
herc
tif
event
dani
hex
##ulous
metric
kk
asynchron
biologically
##ips
impairs
allo
estimates
intentional
cis
checking
peroxyn
quitting
7a
##atized
##西
hor
billerica
##ocarb
vincr
identities
downward
ρ
disappearance
segmental
immunoassay
##ross
##plicity
##estrogen
operated
erythrocyte
##phan
##stand
hearts
merit
withdraw
##白
##iting
𝒦
economical
disturbed
tons
abstracted
brucei
dst
outstanding
reinforcement
neurophysiological
ultracentrifug
farming
⌣
##ber
ferre
russell
₇
##ophylline
ez
prohib
radiologic
protons
anaphylaxis
asth
awa
pak1
nause
digitized
ƞ
##hol
149
##ert
##ko
portable
##ova
acid
kore
##athers
downstream
sic
result
bacteria
##ically
object
serum
grouped
privile
senescent
catastroph
##obut
vertically
##4d
##irable
##icial
encompassing
dop
interm
##cm
##к
jag
rgcs
quintiles
deviations
10−
territory
bry
thalassemia
confounding
fi
canals
cloz
##ob
oscc
##aphyl
inhab
resolved
normally
##asy
trans
gauge
conductance
##antic
##yte
suppressing
##eit
cognitive
myeloid
##entanil
##emed
##aminase
##ucleotides
yosh
sized
pollutants
mmt
subdomain
conges
aperture
api
##itazone
least
dros
polyc
sto
##114
##arily
glycosylation
continental
articular
cfdna
##oalveolar
##atase
digiti
adequacy
##itzer
resistances
bill
##92
bacillus
5g
57
t2d
neuros
周
her2
parenchymal
parkin
fourfold
minimal
thromboembolism
hearing
irrigation
ranking
systematically
##116
vaccinia
resorption
gran
hx
dy
idh1
##oxal
dysfunctions
electrophoretic
polyphenols
sten
dehydr
##lable
##rolog
belongs
smi
chart
multinomial
warrant
pollutant
片
wel
m13
somatosensory
infecting
diat
tn
##iaz
nitrocellulose
medication
##ox
repaired
organs
##pic
##wi
##urition
lee
varies
bacterium
skipping
##queous
pharmaceutical
##unctiv
kdm
tetrahydro
##log
akt1
experienced
approximation
##ϒ
moll
instr
arose
nrf
##oba
antiplatelet
dyad
emerged
chemicals
acros
stere
sorb
nominal
scfv
controller
oxygenated
v5
##noea
dish
summarizes
assistants
sorghum
micror
myod
″
##∼
enteral
##otinib
rib
##ior
##rane
##tivity
gond
stratified
neurodegenerative
oriented
placental
prv
##les
##≦
milieu
##ƙ
trim
adver
brook
##calibur
overh
intraperitoneally
foli
signed
##ussian
##agn
supplying
thalam
erbb
maltreatment
circ
regard
pursue
invasive
depr
##oplasia
cent
asym
alaska
duty
括
##aya
weakness
##ulum
methoxy
##rough
##angl
data
##eto
one
tether
leukocyte
sustainable
##oto
integrins
phonological
mω
419
pm2
analogous
spindles
around
contexts
coaching
caen
##works
##tal
pancreatic
##gma
sy5y
jnk
gase
##pts
sab
##imension
mcf
##ethanolamine
damaging
specialized
autophagy
delay
##osan
stoichiometry
##onide
precuneus
clus
eif
162
stressor
coli
shuttle
water
galact
omitted
##ophore
diagonal
if
percentile
##后
phosphatases
cd14
tagged
##97
preparedness
nerves
photosynthesis
786
channels
##orhabd
cultivars
##162
coll
bean
##环
incubation
meals
440
subclinical
ltd
irrespective
flight
adal
barcelona
cryptospor
thaw
capped
##至
calling
##electric
##isite
schiz
hours
##orm
cyp2d
##afluor
transferase
chromosomal
vitamins
carry
simulating
dissolving
drastically
causality
##res
motor
superscript
lt
##unting
antimal
bottle
functionalities
haploinsu
plated
peroxidase
tcm
genotoxic
guess
°
str
aa
morpholino
##11
α2
vo
harsh
erythropoiesis
bc
preeclampsia
##room
mgl
childhood
ʺ
202
sildenafil
morphine
biological
mapping
mage
determ
sterile
batter
chromatograms
captive
s6k1
continuum
的
##unch
##ithromycin
cerebellar
##terone
matric
penetrate
hypoglycemic
bre
g12
组
##nt
dismut
##bio
thinner
succe
aquatic
##oplatin
iii
hesc
##增
seques
nit
compositions
strikingly
glucocorticoid
ptt
acetaldehyde
##over
co
##adi
##itabine
ileum
chemoattr
##adher
##ogn
##ragm
helical
constitutes
mdscs
##orphine
108
##ould
nras
a3
repressive
##entif
keto
magnitudes
benzodiazepines
gynec
##肝
1000
##222
stratify
abeta
rif
exists
ℱ
mak
micronutri
ple
p7
##mental
phyc
103
ky
aryl
floor
lentivirus
pdgfr
pnd
##₃
hapt
ch4
ubiquitin
cen
challenged
ceram
systems
osaka
glucuronide
##iding
rever
occludin
tata
particle
amplifier
cruc
publish
proper
directions
receive
##e
##ix
new
parp
incap
wis
phased
surrogate
reserve
antimalarial
displac
##eratin
polycl
##asant
rnfl
suppresses
perox
nucleophilic
huge
named
(
##nae
##able
##ongru
plac
义
ɵ
furosemide
created
coi
theophylline
##omp
##prol
##a4
chronically
compulsive
accounted
moderate
experi
gains
microbub
benchmark
chin
aims
urea
##clusive
consultation
macromolecular
##yle
atypical
intestinal
45°
ldlr
underestimation
##fir
anomalous
transduction
##ament
##war
consists
hemorrhage
##ardiac
##trexone
intens
biased
048
vad
pictures
##ə
starch
php
uses
##opy
spheroids
2016
csa
county
##aka
mildly
abrog
##化
apoe
cai
op
hydrox
degs
stay
##ila
−5
polyvinyl
##ancer
##aph
##rosion
coordination
##fed
uninj
ages
##onucleases
glycer
gabaergic
lives
sequester
##hepatic
bypass
##force
##ustr
1969
##eh
##ß
##kb
risky
global
235
rgc
260
##break
introduction
junior
botulinum
##⁄
kev
##igm
head
hdac3
skull
##f3
mannitol
##lear
fos
##oxone
##og
mo
341
compensatory
rt
spectroscopic
stor
ovine
acous
类
biology
sre
6a
toxins
unlikely
verbal
sole
102
286
arom
divalent
sake
‬
cystic
invari
##aryngeal
omim
##metic
anticonv
sunnyvale
parathyroid
bec
##m1
𝜀
prerequisite
fifty
phenolic
erectile
projected
ageing
##olipid
ghrelin
degranulation
zr
inclusion
fra
##mv
interneurons
monocyt
aflatoxin
biomaterial
##ometrically
popular
translocation
cysteines
dilutions
quantitated
reproducible
injured
hemagglutinin
difluor
##breeding
fgfr3
preg
proving
##cal
authority
6th
census
asthmatics
spend
hypocotyl
eas
basel
club
psychotic
09
hetero
corroborate
geometries
bipolar
##æ
##erg
dxa
mucinous
region
breeding
thorac
##断
glycosylated
generalize
##artz
downregulation
approaching
col
##enopausal
##ger
workers
icsi
##tib
eliminating
vasodilation
##251
oligonucleotides
overlapping
6j
ltr
rbd
leptosp
diamond
glucosidase
hfd
##ishment
些
ctla
2m
##ontrol
##iaceae
##otropic
meg
sacrificed
##opro
206
nets
sirt3
pcna
aes
mandatory
tremendous
ob
180
##factors
congruent
lysosome
amph
##nam
##assa
##ested
##ylate
wol
shrink
streptococcus
disseminated
eds
dosed
hemodynamics
gds
routin
legal
astrocytoma
isotropic
norwe
g1
lines
##射
##mli
mucosa
glutamatergic
computational
⁶
abol
governmental
stimulatory
socioec
elev
palmitate
albuminuria
clr
concerned
于
veins
increment
myocard
al2o3
enhanced
qpcr
dn
##族
ps
vib
marked
situ
paclitaxel
xer
fascia
transplants
##nan
##eral
subun
statements
footpr
##type
approxim
electrodes
p85
iiib
cities
glutamyl
##balanced
promptly
existence
drg
hf
hydro
seps
bra
unanswered
rdr
willi
capital
##ℜ
ys
lem
uncharacterized
nac
taken
opens
mpa
ics
creating
microelectro
metam
uracil
eclampsia
sulfhydr
selectivity
##etary
##in2
arrows
##ting
going
mycobacterium
resources
##cl2
##inergic
tgc
promega
hundreds
##pn
populated
diploid
concerns
##glut
##elling
physician
cartr
prd
facs
fei
depicted
##arbonate
codon
hips
ɳ
refinement
demands
pragmatic
##alpha
relatedness
atomic
hippo
sing
telangiect
rumin
snap
immunocytochemistry
段
##45
mall
dating
##arynx
##osc
fviii
rafts
道
polyps
trisomy
recognized
sophisticated
thigh
fu
nkt
odont
tot
autocorrelation
##uge
der
alongside
cau
australia
weigh
##qq
##根
pseudomonas
##ares
australian
gg
常
glucose
babies
enhances
segment
##itan
weaned
precedes
triple
+
##itories
ns
##ozol
roch
alternatively
##astr
bz
t1dm
pread
ease
teach
zhong
##ception
reinforced
##ℬ
upright
graphpad
毒
prostatic
hid
parts
borderline
tack
##ahedral
flattened
foc
probable
svs
durations
##icks
institutions
amended
depth
##ul
piper
strips
##enone
##1d
yellow
##ectives
producing
macrophages
symmetric
misuse
academic
##外
bright
trio
ger
##ellar
inactivate
##uses
prevailing
##ities
##osylated
##imensional
##ovision
acad
cris
spiro
contributes
rectus
expensive
za
metadata
##achlor
endosomal
atl
boron
##plicated
##mma
vand
##本
construc
##bur
##know
heterochrom
microp
repr
walking
数
pe
when
distortion
##vities
##÷
probability
wastewater
eliciting
stacked
frozen
metazo
district
desensitization
manufacturer
##ges
carbap
valpro
leukemia
##acea
contractile
ogtt
s
coefficient
pcc
unsaturated
scar
indoor
no3
startle
premature
##84
burd
##ord
safely
##o1
insula
indeed
thromboemb
fight
##ogeny
##ass
meiotic
▽
dcis
grid
hdr
relieved
##icine
countries
fibrous
serial
胸
magnesium
##o3
234
1960s
##chron
cotransfected
contributions
subpop
mesang
pyruvate
97
pla2
perip
∗p
##atal
excess
##lers
hypoc
ɛ
neurotransmission
##ozoite
ineff
investigations
rap1
socially
§
b7
min−1
will
deleting
audit
326
cognitively
skilled
##oglitazone
##andem
deficit
##ething
##ectively
prospects
件
justification
batch
htm
bulky
malarial
myr
inequality
dihydroxy
##eav
mpm
shock
##ino
gtg
landmarks
pcbs
effici
##效
##lipidemia
[CLS]
ratings
program
autoimmun
dwi
##ford
glucagon
anthr
ifi
correct
impaired
best
synergism
gif
viscer
##mia
##olution
depleted
bring
trophoblast
cd80
propidium
pierce
##veland
arterioles
cholest
##uran
ihc
eugene
370
iba1
pasteur
lysates
implicates
pollen
sparing
cultiv
immunoprecipitation
vivo
k2
##ervation
um
##verty
neutral
fist
contradictory
cdc
datasets
dynein
##ecting
diam
thirteen
402
ddd
radiofrequency
repertoire
demonstrate
augmented
##ued
##⋁
##acers
attracted
maldi
arc
ambul
cxcl12
lipophilic
safe
rater
quorum
改
highlights
alteration
cess
pancreatitis
##arded
causal
hr
limbs
##yne
cardiopulmonary
extrapolated
##witch
##dh
terr
≥30
计
…
ocr
bearing
nox
##gt
jak2
##space
sanch
##bi
depress
hans
lifestyle
216
ascer
##quant
且
##amine
##oty
tyr
gpcr
##iratory
del
spirom
postinfection
structured
irresp
##actors
north
remain
morphologic
##gram
docked
thom
rhabdomy
##205
##brid
##⋮
phosphodiesterase
revis
merge
leprosy
saa
genetics
ca1
dogs
tacrolimus
recruit
fy
abor
##fluor
foam
saved
papillomavirus
mos
##⏟
hyperc
salmonella
deox
gsk
ctv
nsc
##tion
signaling
stenting
##●
ww
spl
farmers
iq
plating
fast
campyl
家
vertex
miscarriage
anesthetized
oligomers
11
fibros
longer
embed
responded
polycomb
adenocarcinoma
grape
25°c
##itrite
nonresp
alpha
augmentation
carbohydrates
®
etch
regions
▾
homodimer
mas
unresectable
hcd
ps1
pulling
suspicion
organelle
##umi
manassas
pelleted
incorrectly
nano
vestibular
⟩
arabinose
documents
immunolabeling
##肿
nucleosome
2002
pineal
##illar
anneal
##birth
specificity
nuclear
eukary
spawning
december
##cl3
tcs
##ous
##oxygenase
runx1
alcoh
elsewhere
staff
totally
dissolution
nls
##所
during
princip
##都
varying
drop
sales
##onders
##tx
2015
revealed
shunt
##attt
stirring
##elective
～
##ella
msh
prolactin
erk2
opn
rbs
##otherapeutics
fto
ϑ
pyro
₄
boost
catast
vow
##−cd
##ene
beijing
ots
adhered
##ogluc
staphylococcal
vasoconstr
derives
hodgkin
folding
removing
##oo
##eses
b0
angular
jolla
dysregulated
led
weights
integrative
##ondyl
lepid
##uit
cut
johnson
˚
##gression
blockers
318
行
developmental
##omod
##hedral
gse
333
trajectories
##abe
decline
oscill
er
suggested
circular
utilize
##و
button
fertile
扩
ib
filter
formulation
##olet
lymphoblastic
undesirable
nivolumab
repository
c12
异
mosa
peptidoglycan
dz
##elle
elisa
##ements
##inase
##opyr
endothelial
bace
##inated
nich
gal
##ulos
community
verm
fem
##arious
rele
citrate
az
42°c
##entific
##olog
virginia
munich
neutr
expenditures
medical
enanti
680
helicase
酸
neiss
metropol
optic
immunoprec
##acing
polarized
mexican
preload
μm2
##±6
simon
triton
authorized
wy
hybridized
ui
ris
##с
↗
mvs
##wal
⁸
bruker
caveolin
activation
nadph
insem
toler
##odet
##osomal
mouth
esp
uv
outcome
scintigraphy
obtained
truly
comorbidity
254
365
testis
∖
hyper
tools
infertility
coverslips
##ycin
irf3
##1a2
##arly
lagged
referred
bisexual
tpo
管
2x
通
lactation
zebra
are
identical
##ulder
floating
022
##诊
##液
##49
densitometric
gland
septum
subtypes
n2
sick
stigm
assum
squamous
evidences
ron
##aat
angel
carcinogenesis
thirdly
bonded
polysaccharides
glm
##ophosphor
midwives
##pres
virulent
inactivity
##irs
be
##vo
smears
nephrotic
preparation
branched
derived
suggestions
placentas
dea
无
##etamine
nat
mda
processes
thyroidectomy
polish
ms
runs
28°c
icg
definitive
dig
beef
##©
trichlor
##omatic
spore
lymphadenopathy
successively
forebrain
##roteins
##so4
vertebral
pkcδ
repeated
coron
centered
four
lamina
tka
turned
chicago
##ections
chaperones
##oretin
∴
rectangular
mvc
##opr
agro
prophylaxis
tasks
phil
carriers
tibia
##三
№
pdt
mineral
onto
immunost
spik
ingen
buffers
427
##ence
heterod
prov
018
regards
tta
physiological
ulcer
##operoxidase
fe2
incorporate
abn
##abolism
2011a
初
tumorigenesis
mpp
mosquitoes
seems
murr
anticoagulant
neuromod
knockout
##123
recorded
diego
hyperth
ribosomes
external
##oming
present
modulates
outperformed
accompanying
straightforward
##eremia
##ann
irradiation
earth
chow
##神
##d3
radios
3d
photo
wong
dissecting
wat
tell
disruptive
##ostic
chaperone
stan
dural
expectations
rheumatoid
##iv
##3a
kernel
mimics
credibility
fbx
amber
regim
hierarchical
ambly
##osulf
complements
depending
zhang
##266
induced
nonsynonymous
##ersed
polyph
travers
neurofibr
##illiant
lib
gil
apobec
compl
paths
essence
spoke
功
assemblages
pr
н
##平
known
bodily
hat
adenoviral
repetition
##irection
orbitals
recommends
neural
investigate
##f5
##ifies
423
novelty
phosphoinositide
c6
##ubicin
##acterium
##226
##ler
polys
##onding
fat
uric
subretinal
##eters
mated
euthanized
nmj
sensations
chondrogenic
fo
mcv
practical
digest
##actc
##yxin
worth
##otyped
characterise
atlanta
superficial
bias
##inus
nis
compart
antimic
##indole
pda
displaced
serving
il1
↑
passive
##示
fluoxetine
suppress
srebp
criminal
##urations
committees
a7
referral
unsuccessful
##plantation
methamphetamine
purpos
mammal
##fficients
foxm1
clustering
crops
polypeptides
incentive
##ded
srh
advance
nation
##een
carbam
lipof
##atsu
rtms
glycans
##acag
##aming
≧
transd
fernandez
mitch
les
##enchym
proactive
ectodomain
ℏ
uas
chung
psii
choices
pk
dpc
##质
dielectric
pcdh
queries
mfs
proteasomal
proteins
codons
fsw
##给
estrous
##⊕
plp
valve
lpc
accession
##abil
homes
l9
g
aligned
ipc
directs
##atre
schwartz
lacrimal
i2
scholars
mtt
##305
bq
##估
darm
##ypert
opposing
colloidal
##ocard
##operative
attachments
_
pharmac
relapses
pregnancies
chloro
atrophy
removal
declare
hitachi
extreme
confluent
##ud
##oglycan
diagnose
abp
pws
##children
analyzing
paramagnetic
simplify
pixels
deparaffin
##标
xie
interconn
cortisol
obstetrics
ɣ
##ogrel
采
trying
migr
hundred
stratification
resten
copolymer
hallucinations
##estern
hydrochloride
hav
omission
##密
nematode
##folded
vitreous
##erved
chemiluminescent
solubil
ϱ
telomere
##xr
longest
regularity
lack
strong
##aca
worthwhile
important
roc
gpi
laz
hispan
perkin
adversity
poss
##ubs
aca
leukaemia
pere
injur
psg
##ocyan
f4
##zees
restoration
brow
##bia
attempting
grp
gr
ell
resides
##aturation
##eptin
##wid
fore
pcg
leaving
chambers
sanchez
##pd
convex
retaining
response
manuscript
gay
cm
promin
phase
coactiv
polyuns
cope
psychosocial
##order
shaker
phages
propose
##amol
‒
invalid
##5ac
etiology
##278
specifically
copyr
##answ
atm
shell
ion
valu
kapp
dnmt3
add
hcy
或
tagging
tent
war
cruzi
impor
##opia
packing
mmp
##ushing
bass
cholesterol
pleiotropic
biochemistry
microscop
##a1
russian
exhaus
perioste
os
levodopa
tmj
dissociated
this
desal
critically
designs
##bh
vicinity
thirty
##atar
aesthetic
maz
epitheli
nifed
##axanthin
renewal
gata
reaction
algorith
2°
##iva
white
exon
cyp2c9
inefficient
olive
observational
jurisdictional
yt
multidisciplinary
conjug
ownership
##pled
maltose
pm
contacts
nasopharyngeal
tuned
mitochondrion
dors
olanzapine
atmosphere
yielded
reass
formally
2006a
##trials
coarse
increasingly
##wich
##ortem
ssris
valencia
conceivable
ibu
scm
cov
lacz
##uler
##imilar
unremark
##oadjuvant
asian
##mer
##ric
##opt
p70
##u1
##⊙
93
isol
pubmed
antim
##24
nick
sorafenib
##ground
recipients
drafted
enum
uncomplicated
escs
competition
injection
stark
##tructures
violet
##◻
##tering
coord
hmscs
##tric
composition
polymorphisms
s2a
˘
color
reflux
tropic
faa
translated
cyano
pce
mva
##iss
##omorph
persisted
##kine
rendering
cme
da
µl
##utin
atp
raph
values
amplify
manip
##ique
legis
circumstances
rheum
visco
plex
hsc
##tituted
roof
maxillary
mud
##thrombin
hnrnp
commit
观
speeds
haplotypes
isoflurane
narrowing
##ako
10−5
committed
##iop
episode
shotgun
consume
巴
offl
±
secured
##89
##308
clara
pem
adverse
##elic
pon
kr
taz
32p
##122
##07
incisors
utero
##tit
may
casc
acknowledged
friction
##arius
teeth
prism
##onically
cytosol
hydrocephalus
##rew
##288
transc
rms
microinjection
lecture
##ophosph
filters
biochemical
fal
friedman
exchanger
##roni
prior
cooled
contaminants
contracting
##enter
immigr
flexion
upstream
ο
anticip
caring
##imus
##＋
##显
life
underlined
amplifying
##elong
arthroscopic
organisation
hbc
diseng
##airs
initiative
##itz
consultations
nons
contrasting
interrog
concussion
endothelium
bdi
p35
##par
56
h6
mci
neutron
orthopa
slee
hfpef
arrowhead
undergraduate
retroviruses
simultaneously
potently
anhydrous
let
convenience
perfused
citations
retroviral
korea
upa
##osse
##ami
##trial
pyros
dermatitis
完
##itary
珠
densities
##obacteria
transpar
composite
##well
contribute
negatively
##ovalent
signalling
isolate
subtype
uni
lrp
centre
azd
expert
triplicate
##iters
conversation
##ov
tlr2
sexuality
partial
dye
translating
##ville
态
##otherapies
yy1
retrotrans
549
##ont
##ofol
bene
vibr
##atics
inhibitor
gal4
releases
297
258
objective
exposure
ibm
o157
##ticle
##ˈ
permutation
microtubule
##免
bh
cigarette
lactone
gadd45
greatly
soci
##⁰
##hippocamp
##resp
过
degraded
已
endosperm
contents
##asone
herni
salic
wa
fec
chondro
steric
burlingame
使
zol
el
immunoblotted
attending
##anch
cul
##𝒱
##≳
deprived
jugular
associates
classically
deleterious
inhomogene
kos
##ises
docx
##xx
intraclass
computationally
lymphocytes
autoantibody
minutes
injuries
monomer
organis
glauc
universities
ampl
ip
investigational
certainly
clinician
adversely
eastern
with
drying
##ading
##t2
尚
统
buried
gaa
administr
##odys
##olar
microvess
collections
youths
sbs
##ositis
iteration
ocular
transdermal
electromy
relying
nepal
coagulation
bioch
sequentially
及
institute
acutely
km2
ecos
renin
##patients
oxide
auth
situations
##romal
##度
##etit
dlb
mefs
confirming
##✓
##quest
prefrontal
parity
azathiop
schistosomiasis
trh
thalamus
##rell
bos
simple
546
contig
primates
propria
methodology
chitin
herb
restrictive
solubilized
##factor
aph
pmol
briefly
emphasize
python
watching
##疗
operators
##106
satisfying
209
ionization
##ophysin
##p
250
##irubin
acute
oligomeric
##uthen
obtaining
cardiomyocytes
neighbouring
probably
神
##ymic
beneath
glucone
facilitators
##tep
reb
erbb3
criticism
exhaustive
##usa
mesenchymal
ctd
p5
topical
##crim
##𝒮
##kat
prost
simpl
##quist
camero
biofilms
unbiased
##∫
⌊
polymerase
##ailing
##onasal
##po
neut
subcortical
##uu
afric
haplo
ebpβ
岁
largest
brainstem
mutant
##idge
emphasized
##abd
renal
ross
cerebellum
##arging
neutrophils
##ken
externalizing
##uls
paed
##oles
roles
opg
assignment
interpreting
jama
cardiotoxicity
psychology
beclin
3t
estrogen
##aves
kine
##etermined
cc
motility
ifnγ
jans
chemoradiation
lect
ssri
entity
8e
traditionally
abstracts
biotic
##sy
##lish
##omycin
velocities
conformers
##iately
τ
146a
##oscop
steady
thresholding
texture
thanks
nur
duck
nnr
reciprocal
ecosystem
##ishman
seek
recurr
amel
proximity
equip
##thral
butter
barth
##率
categ
pdac
##mand
providers
examination
fract
records
kg−1
fasting
text
hypother
spider
caucasians
astrogl
action
brady
##astically
kt
383
##72
tracers
s100a
##yp
##uitry
2k
##ifl
##aska
bmal1
affym
##ovsk
scope
optics
##oxidase
##eal
polarity
triplet
wilc
requirement
ee
##encephalic
221
##osoma
##tc
splenectomy
##408
intake
##actant
buffered
ern
belong
facet
suspicious
##izations
chi
enth
capping
##35
##xl
oligomerization
##link
instructed
mannose
predictor
confers
##受
##adap
##⪰
mcm
hescs
loop
immunization
unlike
##cephalus
tad
curves
s8
nal
利
northwestern
relig
ids
unidentified
edema
##oh
protoc
joints
axis
630
##idines
lun
subdiv
htlv
distribute
##221
ours
failure
volunteers
gip
pherom
r0
careful
׳
captured
7f
##模
##aved
adren
theme
hazard
google
angeles
projection
imply
##ardia
ideation
attachment
criter
vd
414
homogenous
cma
##facial
prevalence
decarboxyl
##ent
##ering
finished
reflection
properly
mtdna
1∶
newer
appreciate
acted
nondiabetic
oper
prompt
retirement
reside
illicit
vp16
lic
il
invad
##otracheal
ecological
aversion
##ptive
d7
veh
prematurity
inherently
准
louis
supervis
##ofrequency
impairing
disparity
##anone
mortem
mosquito
circum
lastly
sonicated
scaff
government
650
slowed
入
##dehydes
recon
sof
hip
correcting
rectum
thin
##ention
map2
bounds
##itance
multid
herm
stratag
conflic
stains
tert
minocycline
sequ
##uctase
##jun
##environ
iib
pericytes
drought
nine
workforce
resistance
alexa
##porter
##143
items
defenses
有
infertile
sedative
biod
irr
grained
underwent
##68
coad
preincubation
nmdars
##eli
depolymerization
##ogram
precondition
roberts
discharge
##uki
retire
sinensis
rantes
##ending
##embr
amplifications
ptms
predispose
##ocarcinoma
290
posth
palliative
implies
cava
mounting
lat
perforin
immunos
##83
##bil
##enchymal
ino
classified
nanopartic
hypom
foxo3a
˜
adh
potentiation
rein
artic
74
##thiazol
##▬
forward
##point
综
overlaid
social
relation
##olec
eventually
meters
dii
parasite
retroper
chen
ecology
bact
mega
heavi
caps
abrupt
controversy
give
unst
bog
snapsh
cylindrical
transfusions
initiator
dialyzed
odd
##illi
allergies
detected
respective
msm
standardized
dol
deple
aversive
##inol
demyelination
tryptoph
kyph
##accharide
march
##opreval
contraction
mpn
intermediates
protecting
converts
##anges
lig
##ocyst
ded
##bank
gssg
springer
##v
##iton
##hipp
striat
治
analogues
est
ki67
##glomer
##ept
##akary
cb1
cardinal
##abl
##entional
##minth
##qc
intolerance
williams
pneumothorax
manufactur
##ipin
aerugin
adherens
cardiovascular
nog
neurolog
typhimurium
inequ
rain
fluctuation
anth
##apolis
##treated
##elioma
ment
tear
ηp2
##tible
##vable
desired
immature
##ecd
format
inoc
##iesis
相
root
her
vasoconstric
advertis
##etomidine
##iders
myeloma
##amental
##com
siv
strictly
beat
leading
surf
##osides
ǀ
splenomegaly
introgression
carlo
##prs
nz
unacceptable
widespread
harvest
reclass
plot
clinicopathologic
conferred
labor
α
glutathione
cra
perennial
##ant
mj
mastitis
queensland
bivariate
reconstructed
advocacy
eukaryotes
wavelength
biol
improved
arteri
densely
hour
431
property
##ensitive
hsc70
##rosp
vide
##version
inacc
discordance
t3ss
##omyelin
adop
580
bci
inoculation
wagner
hic
cd4
neuron
appropriateness
concurrent
follow
##aman
##β
propagated
##如
##oadj
arb
mini
rnf
insomnia
fmoc
distortions
kas
sand
mitophagy
ari
bob
faculty
rectal
##iotics
dac
spor
##arding
coding
nag
##ulose
sonic
e1
1q
berry
##赛
cxcr2
dad
absc
º
force
pieces
mmps
##基
##反
hansen
describes
##istry
bid
##lm
##astin
appeti
mutants
leup
##ied
impulse
constip
##99
ultrasonic
##ogenin
##actor
integer
##303
atlas
libitum
metabolomic
distr
histi
glur
##未
pah
bronch
##factory
cryostat
##tip
frequent
游
macro
calcit
linker
accult
ampar
spectral
dispersed
##线
##亡
anticipated
vena
##性
operates
cps
volcan
##alth
##ensor
overwhelming
##融
chcl3
intraluminal
pige
##elf
yl
saint
massachusetts
##absorption
inexp
nsaid
hospitalized
complication
186
##ews
timep
unemployment
##aign
主
ovip
pyrrol
seg
advancements
##virus
##opsis
reimb
closed
pennsylv
transporters
reflect
exer
machinery
##emann
angiogenesis
##ilon
##actone
use
attrs
resolutions
swollen
zh
droplet
reasonably
phospholip
239
μ
strain
cochlea
sacrifice
reintro
barb
seasons
cellularity
##osome
olig
##entric
gro
##igned
logic
interest
都
sucrose
##ck
save
compressed
##atheter
prrs
皮
038
mdma
##gia
aldrich
upregulating
alanine
nutri
##atr
approximately
faint
##们
##rectomy
docetaxel
好
pss
volum
helic
subgroups
sanitation
deployment
triang
vapor
sets
k4
intratumoral
ended
anteced
contacted
stripped
##entis
reverse
wdr
cry
##gca
epigene
counted
modern
neverth
##odone
inconsistencies
◯
intensive
bern
osteosarcoma
⫫
raft
homology
##oate
inters
contribution
dht
subcutaneous
throat
cultured
rock
hourly
##benzene
deaths
pav
wss
##oven
vigorous
diffusivity
esteem
type
layers
boston
bw
propofol
##am1
flanked
unsuccess
residential
δψ
rack
methylprednis
interests
juvenile
prokaryotes
kidneys
tween
rts
weekly
ctrl
mel
##80
noc
nicu
usefulness
展
standardize
sumo
ascorb
matter
quantity
##ement
oncogenic
digestib
muscles
email
calorie
##261
##‎
##onge
selectively
annulus
##其
##wt
##imeric
##yn
1800
iodide
##base
saw
court
interne
lamell
choroid
occurring
subunits
incorpor
##ely
mic
specially
smad4
ephrin
crystall
##ordance
##odermal
mmp2
mhv
blast
chlor
##12
allows
loosening
≤0
regression
fitc
load
boards
##anoic
cortic
##icl
epidemiological
marital
析
cms
manifold
plain
recovery
decreasing
bentham
sin
renew
inactivation
##arr
resembl
remnants
##hom
snare
t3
™
##φ
mrm
##pathetic
toolbox
##etr
extremes
♂
depolar
2p
centrality
io
saudi
wear
antithrombotic
representation
spatio
amphetamine
coexistence
alumina
理
tmp
formerly
##ection
howard
s5
por
episodic
incongru
chemical
##oustic
##embryonic
welf
paxillin
mbl
twitch
bla
##ery
##umber
##lip
remember
克
crh
spong
xylem
##val
filopodia
upregulation
##⁺
sacr
summer
fx
london
##ocon
placement
micr
illumination
sett
fluorophores
utilizes
chal
ambion
putative
maps
##ovenous
##55
where
cyste
continuation
poul
ccl4
multilayer
photon
heterochromatin
##atation
browser
##ylon
rflp
parotid
aspartate
##∃
ferrous
davis
ftld
effectively
kent
receiver
##opoie
ligaments
trach
recording
population
bl
bund
##145
operation
barley
lethal
appendix
##zen
grateful
medium
what
⊕
##ogonia
##onomy
168
tenofovir
##ermined
nephrotoxicity
⁠
tbe
##录
decreases
##tebral
uniquely
continue
pure
##吉
van
##这
0003
联
neoplasms
drives
colle
##ǀ
arf
exclusion
harves
##thetic
cad
indel
anis
dar
arabin
androgens
accelerated
capec
alex
layout
45
vast
hyperpar
phantom
##edded
cyn
1966
tbars
##rem
reportedly
insecticides
2010
acknowled
##apeptide
##x4
##ction
limited
atg7
##ycline
objects
##inis
gon
reconstruction
mfi
henry
α3
##ying
##jiang
monoph
##28
histidine
partitions
instance
subarach
kennedy
hacat
experts
fiber
mabs
hund
lox
⋯
disrupted
fide
igg2a
nervous
##acker
oxidored
course
cdna
parasites
implementation
##ethal
rout
##imbic
112
gemcitabine
funds
ccd
secretory
antiv
tfa
月
##st
locations
vom
zoon
starved
##grade
##认
diethyl
##期
##il
tears
##hran
##thy
worker
postmortem
##yan
energetically
doesn
permit
##a5
189
fuels
##164
##profen
quantification
tran
markers
geometr
declar
murray
##gtc
mins
×100
chf
traf
##kins
incid
trimers
glandular
acrylamide
−10
neoplasm
vsd
widely
benzo
unfortunately
infrastructure
𝒴
##att
related
dunc
occipital
resins
variables
uptake
anything
microplate
phases
parks
endoscopy
raise
lgr5
toxicities
lend
##º
millip
##ectiveness
flower
cool
##ocaps
homogenized
rass
aven
aluminum
##nic
cd19
##otyrosine
fe3
craniofacial
interfere
sang
victimization
##viron
literacy
monod
centralized
##oco
interested
rational
##arian
##ocere
tryptic
328
bimodal
##ile
10000
##inositi
eggs
shortcom
suzuki
defining
angiotensin
tug
david
guideline
##yness
##r1
2014a
airborne
oxygen
cyp2d6
detectable
hpv16
##acy
remaining
glo
##⇒
mag
##abr
about
##oted
⊑
提
jak
gulf
corneas
vag
discussions
##omers
corre
##oint
dichroism
lipolysis
odn
martin
​and
och
sarcomere
mechanistically
292
##ival
unid
blockage
##fu
attenuated
characters
making
subcutaneously
qt
1978
pld
nephrot
@
workup
cus
##iod
transducers
##illance
⁎
首
hydrog
fragmentation
competency
phag
screw
brine
occurrence
aggrecan
mll
recently
spasticity
newton
⁴
annular
independ
hscr
##o4
ances
revealing
&
##enstein
www
##α1
nbd
##itish
##ash
misalign
plasmonic
interviewed
kun
##ension
hdm
ebs
##itu
peric
##abi
p0
##ie
smaller
postgraduate
ques
##how
##ogenesis
aptamer
capecitabine
##dc
392
平
δct
adapted
carcinogen
##ipital
bes
⋃
overcoming
ki
conversion
strand
##roz
debil
trees
elasticity
##𝒵
mitotic
systematic
irrig
request
polyt
##ian
121
always
embryo
necrotizing
schmid
identify
syncy
218
krusk
##aemic
focus
postulated
ultra
additive
##essions
##ometabolic
plaus
##coming
photocatal
##ram
hes
##◯
weekend
##rolimus
##emes
proc
vaginal
wire
inconsist
orb
gig
merits
shifted
hexamer
look
cytokinesis
trunk
##uo
carrying
parasit
具
package
smoker
overview
lond
claim
elimination
comprises
##¹
standardization
anhydro
cd133
##pta
吸
attacks
##tex
finding
behav
emotional
##ampled
introducing
innovations
bav
fastest
lung
##jc
ann
directing
dps
<
exogenously
took
anticancer
hydroxyapatite
osmolar
salmon
allogeneic
mand
regarding
enteric
looks
mediter
pfam
##13c
p1
pst
imbalances
##в
regenerated
##ast
circumfer
a
lm
195
replicating
lk
ly29
recurrent
autocor
patchy
##ibb
oligomer
taurine
online
##k9
calp
##127
childbearing
cfi
transl
unrestricted
##edd
opted
plasmid
##uccess
poorer
happ
stimulant
mineralization
##1
diuretic
hybridization
##x7
blindness
##ploid
trypt
radioactive
带
donation
latencies
##assie
histochemical
fellows
collapsed
μs
##33
protect
petri
mma
tee
melatonin
##ilation
##ins
82
adoptive
differed
gist
streptococci
derive
ninety
jer
##eter
##cher
##ogenetics
le
##hydro
pegylated
quantit
sutures
##ⅲ
robust
foci
immunoblot
sediments
heterodimeric
transfectants
##artic
fluoroscopy
c9
gaussian
##yric
∑
vortexed
topo
acetyltransferase
1007
hsp
rag
##if
feel
femin
miscar
icam
▒
roman
columns
f5
toc
dress
triangle
sos
compromised
acinar
fog
reactivity
terrestrial
##borne
jacobs
info
mans
##abine
abuse
excit
hugh
qualities
##�
gapdh
acknowledge
heterosexual
amelior
22°c
##照
stat3
progressing
characteris
resistin
##ilst
oac
france
gwas
中
##ory
kanamycin
caf
kcal
##121
underlie
396
##探
producers
##elan
〉
##phal
olds
accord
245
stabilize
##rii
##首
cogn
##解
sensor
amphoter
setup
repair
cub
regimen
mode
abortions
##axin
energy
initially
##73
realistic
mid
)
dividing
novem
##azepine
strategic
for
denitr
˃
heterozyg
cil
##om
immunoreactive
crossover
infarct
analog
trimester
anatomy
connect
环
nmr
##blasts
##romed
hiseq
mars
rheumatic
iranian
aβ42
pool
notification
##ynaptic
##points
breeds
p70s6
cer
##arenal
xx
p73
crizotinib
##etaxel
granule
##ito
ecog
核
8h
anaer
gaps
telomerase
penalty
➢
anaerobic
##omerase
tendons
difficulty
hbe
##itoneal
##⋀
normalized
##ifuge
alignment
granulocytes
##♣
abilities
intraspecific
inability
##wd
buch
saturation
eag
calendar
##argin
chemoradi
rationale
##59
assessments
microtubules
continues
immobilization
334
ticks
##folate
##embl
austr
##rs
eliminate
##09
##uga
spermat
unmeasured
ole
societal
ton
317
colum
sial
replicates
chir
spline
merck
##acterial
faecal
transmission
##ectal
holes
behaves
flatten
newborn
##ielding
issued
symmetrical
propranolol
coils
cryoprot
thioredoxin
rca
charlson
correspond
means
adc
##s1
adopts
p
61
##isa
rox
csn
lamellip
|
##ission
experimental
iod
genus
625
loss
##access
binocular
transcriptomes
tum
describing
paramount
inject
ductal
put
scanner
nam
ap
immunocompetent
reviewer
covers
\
##ɹ
albicans
speculate
considerable
mtp
##iabetic
atom
inaccess
↔
k562
indigenous
gdm
##mn
2001
##verse
subtyp
asb
philips
summation
dysfunctional
rockford
##ching
incisions
fim
rarely
thrombo
fluorescence
pj
decl
##ek
##hyth
pulp
carotid
preconditioning
##ɳ
disproportion
caregivers
ter
vzv
permitted
protoplasts
distension
cct
intes
hbss
##ines
lil
localizing
purchased
##183
##otic
plausible
avidity
2018
forec
concerning
##ʼ
nk1
kin
ptd
##astric
albino
##amatsu
crc
flavivirus
aspect
##ge
##inin
−20°c
jackson
intraocular
##static
xyle
morphometry
##厄
disclaimers
2007a
amyl
##nals
glomeruli
272
##д
530
axonal
dak
breakpoints
##dg
hyperthermia
##各
snapshot
forg
israel
oryzae
cultivar
##ver
millipore
amin
intermedi
αv
didn
resili
##ott
##ience
midpoint
##i2
unfamili
##tructured
##usi
jaw
stillbirth
globular
##309
polar
cd28
ces
##ational
##cein
##43
men
rinsed
##genesis
##29
percent
amazon
normotensive
skew
lifelong
cardiomyopathy
visit
gaz
pattern
organic
synerg
facilitates
assessing
instrumental
##angi
##rect
##64
consistent
causes
myers
blockade
pgp
≳
##200
##lt
freeze
variability
discs
federation
##gluc
kd
hif
normality
##减
workflow
menopause
fluc
evidenced
bioinform
地
minus
adhesions
##ry
satisfactory
adhesive
reasons
##降
cott
neonates
extremities
intersp
neo
intelligent
成
premolar
crystallinity
finely
heteros
liquids
tunn
safety
outs
demograph
##193
inherited
moieties
distinct
cuff
kc
colleag
comparability
shares
fb
##aea
synthes
##p1
##biotic
pdc
exam
informing
likely
alkylating
##uation
impact
radius
##align
vaccinations
##720
substantia
mtd
lef
vibration
neurotoxic
mortality
encounters
flagellar
ptv
prmt
altered
receives
apo
termination
myofibroblasts
habituation
1α
notice
adjust
ʼ
##ulsive
sweep
dum
cour
enforcement
zen
enhancers
h2s
inferences
##v2
supposed
virions
outline
chosen
ribosomal
policy
蛋
effective
excell
rb
organizing
pathogenesis
ct
pink1
recombinase
bari
misclassification
anton
##ontin
palpation
medicine
striking
3f
∂
##onal
sigm
##ggc
nothing
##ﬁ
##inge
brist
∙
##enty
/
eic
crosslinking
‐
answering
##ear
anesthesia
rpe
cca
e15
##确
◇
embedded
visceral
dyes
unfamiliar
serocon
∼50
punctate
##rna
triad
180°
##iz
anticoagulants
radiology
560
teaching
##ons
colleagues
yf
##ri
##sem
𝒞
friends
at2
cas9
dcr
streptozotocin
##zym
##vi
##aag
drill
≥5
valvular
touch
##add
each
cz
scavenger
taste
interpol
transmural
##nour
##wise
scintillation
input
confined
econom
uranyl
物
ir
polyethylene
netherlands
uncondition
nachrs
polymer
##iber
trimethoprim
spots
##hd1
nowadays
consortium
ndv
enhancement
hypotheses
bace1
resilient
##ween
##hion
##鼠
bisulf
renewed
complaint
distantly
pressing
##除
spinal
mast
hard
sga
bay
##450
filamentous
tethering
##ypsin
##toral
eleven
##elastic
microbi
argu
valence
##ather
mobilization
##ugu
reproduc
elic
colonized
srp
##个
##erational
polych
rockville
classification
##ieu
alert
lind
fold
committe
traction
itr
intravenous
saliv
nanjing
resist
##inesterase
##○
diacylglycerol
inappropriate
ineffective
iatrogenic
relatively
metapl
showing
gratefully
barrett
june
##welling
labs
femt
hispanic
##院
telemedicine
##igible
adaptors
neurofibrom
polymers
##end
maybe
sputum
no2
cush
##rene
1257
nearest
blastocyst
##巴
253
##≺
##186
hi
##obacterial
phyla
extremely
estr
dysplasia
uter
extremity
cooking
##asing
live
##ool
shs
bez
fibroblast
ciliary
sixteen
inoculated
untrained
prey
cavity
pathophys
respondent
##ounder
##eptid
nct0
dizz
737
america
hyclone
gastroesophageal
prediction
bonferroni
##ner
acidified
ster
substruct
graphite
##uer
antipsychotics
anion
separates
leucine
spark
s0
##lofenac
jm
##₅
wk
##驱
conservatively
##formed
electros
trapping
##⁹
menis
##aneous
##kc
phe
motif
mss
accessory
replic
##itations
c5a
cyp2c
kupffer
starts
ecl
dentate
lav
##din
##etts
##urbed
accomp
##≜
##ima
##子
recessive
##loxacin
portal
photoshop
##𝜀
microtub
tim
hrqol
stre
neighbourhood
irradiated
##理
diverg
dulbec
blinded
##acaine
nonp
##ett
barrel
##007
irrevers
则
metad
js
bic
agrob
duke
libraries
##aine
overex
cartilage
unidirectional
edc
##oside
##287
##iversity
orally
nont
ɹ
reprogr
psm
##ffe
granulomatous
meteorological
sections
bands
difficile
asymptomatic
coexisting
incongruent
illinois
mountains
lamb
amend
gambiae
##ily
occupied
persons
pip
stored
electrostatic
perceptual
shuff
piscat
##urement
cyc
site
##pes
mycobacterial
adulthood
##另
subc
motivations
log10
sed
holl
spear
corticosterone
exos
isc
ipilimumab
shimadzu
##ough
thrombocytopenia
insensitivity
hek
nevertheless
ica
hydrocarbons
refer
meaning
##酸
staining
‵
lasting
histopathology
ϰ
amorph
redundant
dib
highlighted
＜
##arith
uncontrolled
il2
authentic
##represented
cephalospor
##ased
anopheles
butt
ail
aldr
induction
traits
∏
##idinium
modulations
141
xenopus
##ude
##ylase
rounds
nord
odyssey
##ker
##cu
dramatically
symbol
env
absorptiometry
543
stear
mater
qd
immediately
arbitr
atax
against
affective
##oth
006
rad
phenomen
205
propensity
flowing
heterodimer
msa
walth
cx3cr1
67
rate
olfactory
reflects
##𝐱
##entation
瘤
##137
bleomycin
##程
prevalences
seiz
##配
paris
900
titers
coch
reactiv
activities
wes
alfa
ice
rick
electrophys
pess
coagul
042
1×10
##alog
##zyme
##activated
distilled
tempting
braun
expressing
scrambled
##eries
specificities
evap
entorhinal
3s
lamin
tek
surveyed
potentials
##f1
booster
anisotropy
lactic
##tigens
##aries
##⊢
scenario
##othec
insec
catalase
restraint
defective
mcf7
otitis
ate
straight
351
##umin
vcam
sop
incoming
msns
##omet
interplay
##ends
apical
stau
opr
emit
glycated
tfs
intramolecular
representations
ʟ
lanes
equival
sever
neighbors
existed
##urine
regarded
##o5
wako
apoptotic
dma
##ymph
coastal
vldl
narrative
determinations
##2d
##54
affirm
houston
diabetic
penetration
inductive
fees
reinf
glutamine
nonid
84
linoleic
microbe
##han
##样
uvb
glycine
industries
cgh
stellate
xls
##制
accurately
exaggerated
influenza
neurology
ncd
departments
anch
knew
##δ
##adren
##259
afterwards
deter
kra
greater
dmd
echocardiographic
especially
johns
abbott
##owa
##229
narratives
locally
aliquots
zfp
⑤
mine
hypert
barri
indications
plei
hindiii
substituted
diagrams
moving
phillips
originated
patents
witness
radiotr
##rupt
toxic
mutations
breed
pluripot
perfluor
hypomethylation
##κb
discour
isoniazid
corp
repetitive
epith
themes
##δc
delib
##ropical
gaba
patterns
tensor
nature
vascul
##plicates
801
institutes
##gens
benign
##dex
##bronchial
ols
##c5
translocated
precon
##μ
##opeptides
therapeutically
##◦
mong
helpful
##opyran
chimpanzees
##enzymes
mount
##l4
c15
panels
synucle
advisory
toxoplasma
antenna
degrees
bleeding
##acheal
camera
rect
neglect
##ocal
division
aff
dtt
lytic
##hed
analgesia
⧫
poultry
回
benzodiazepine
##lips
shells
diamonds
tetramethyl
vasoactive
##ł
##e1
08
precluded
tki
##­
helped
fully
zn
##185
##class
л
deafness
deconv
kan
qtls
##epile
alexander
command
tmb
##ounted
##iliary
actual
drinking
vitre
brom
c1q
##odontic
analytical
depolarized
cerebrospinal
timeline
##iano
##构
cardioprotective
chelating
##arrhyth
cleaning
gtc
fusiform
125i
pacl
net
##ro
##igration
bcva
sss
tra
##vised
subsam
##⅔
oxidase
231
progeny
knocked
muc
reminis
295
nurs
remed
临
players
##actions
repressor
osteocytes
≥2
##ineral
1r
ops
ssdna
##调
##tition
basic
att
lf
##icum
triglycerides
##omol
inadequate
jurisd
stz
hair
dic
sple
##ochondral
xenobiotic
resected
adequately
considering
very
effort
argument
subtracting
mening
fol
立
##orr
fif
inev
mixing
confused
polymorphism
stro
aspartic
immunostaining
##ochemistry
transcriptionally
##ectious
ptdins
postdoctoral
因
ttr
psi
hydrolys
≥10
wheezing
##ots
excessive
##grp
degran
embr
##ucl
mes
monocl
overexpressed
explants
marketed
##oints
ultracentrifugation
detergent
pupils
artefacts
##vertebral
megakary
fe3o4
flav
leptin
qds
##ft
##roll
compan
musical
##148
jl
crus
jap
ouab
seed
##ega
##ivalent
train
cdh1
microsomes
##riage
resource
appar
jones
##wig
leaflet
nts
##ise
joint
rewarding
tgfβ1
##力
storage
resembles
neutralized
​figure
documentation
delaying
##orrhiz
mismatch
neurotrophin
期
secondary
tem
porous
##来
##iazep
##unk
dichro
researched
embase
##ora
estimators
validity
microsoft
preventative
sfl
##idelity
fp
##fts
pressures
postprandial
##♯
concentration
manag
omp
gabap
hydroxyp
falcon
right
allowing
vit
taxa
##op
##otho
unlab
sorting
380
##requ
gol
des
cognition
##tech
2015a
squares
integrates
ℙ
##flies
practicing
creation
medias
ways
risk
##omyc
accountability
otu
##ogonad
##oron
pmn
lc
##inting
##ibrom
善
unus
##ˇ
degenerate
infrared
hernia
348
ctgf
##10a
blastocysts
##▵
party
somatostatin
##olving
coil
soy
recist
##bon
attenuates
##adjusted
benzene
##u
vasopressin
millil
cch
whose
housed
dio
disp
##uronic
digits
illuminated
fluo
neighborhoods
tunable
dul
oxali
ø
dura
##velop
fertilized
impossible
##lands
cord
sedentary
biotechn
nsclc
##mate
##ular
ons
explicitly
glut4
intrathecal
⩾
entered
permanently
gf
cary
##oviral
##ystem
thermo
calories
mea
clop

thro
intense
##现
translation
cds
acr
##uminescence
editorial
raj
inclination
fpr
gata4
inactivated
transverse
trast
⋀
rh
##ectomies
##v1
takes
##itate
identifiable
##kel
diabetes
grp78
jacob
antibiotics
vsmcs
hills
casual
proved
ubiquitination
efs
designed
10a
wafer
recovered
177
adjacent
advers
hwe
coq
##eps
评
neuroscience
##otin
346
niv
gp41
topologies
lz
##vas
palmitoyl
clopid
##adel
includes
nylon
blunt
每
bird
biolabs
##ocortical
rifampicin
ns1
##包
subscale
sickle
##ours
##itively
##ag
##∅
##bor
γδ
##135
crohn
coomassie
##erus
continu
refine
restore
seer
appointment
shedding
invent
quenching
abdom
##fin
##pted
operating
##acle
##hold
##ason
distinguishing
characterisation
β2
electrolyte
deliveries
absolutely
##attc
tdr
60°c
birthweight
##flavin
研
undetermined
##677
dead
##ationally
detox
sting
##ining
amplic
##phosphor
##apto
policies
dopaminergic
##ompass
mdr1
hbs
hyponatre
pharmacol
resilience
##342
ready
quadriceps
authors
##inc
applies
peroxynitrite
diver
⇀
quarters
prenatal
hyperpolar
accurate
postnatal
mailed
unpub
compartments
##riers
prescribe
time
atri
intermittent
generic
isogenic
specim
##otoxicity
labeled
behavioral
depended
abbrevi
arrhyth
rab11
pcr
big
##没
unlabelled
chimpan
uveitis
nontrans
eliminated
angio
384
a27
gesture
34
avers
mendelian
dism
##ads
guilt
dbs
##opoietin
histomorph
##amy
pneum
##₇
subtil
coordin
h0
##rd
dece
apnea
##omon
fyn
licensing
hepatitis
cd25
##ser
##orna
peroxid
synd
cult
##abdom
releasing
agonists
##n9
##ocarcin
##phi
gastrin
##ⅳ
349
##似
hypoth
downs
gestational
quiescence
hba1c
stronger
qtc
##lot
##izing
lacks
excited
conflict
##η
mica
fad
imprinted
endow
remote
ancova
##ople
satisfy
hnr
sinuses
##ta
proliferation
lst
364
lose
mori
##affin
306
cib
opportunities
t4
cd86
d2
septic
equations
azt
##map
##yrin
damage
adm
obser
##otub
len
establishing
physiology
highlighting
hz
1500
##itrate
##ength
rotenone
●
group
sensiti
oligodendrocytes
đ
nonex
transcriptome
equipped
antisera
proce
##ugh
prostate
survived
228
conical
align
anatomically
ncbi
lock
##ipot
today
##mid
lrrk2
##aban
pref
exploited
##iary
hyster
clearly
reasoned
tolerability
quan
accommod
##tegr
##elin
mindfulness
run
endometr
##itoneally
matrigel
itc
utter
##下
overl
humoral
14c
nonsmok
formate
staurospor
##luor
q1
kaiser
indicative
##ocalization
lmp1
singapore
hydrod
##adex
87
weakly
pandemic
frail
billion
morphologically
pml
natal
york
##ronate
##beck
caused
permutations
##opo
##ikawa
ribavirin
lycop
rr
anchors
doubt
numerical
##p6
bj
identity
##ondral
chromatogram
##ires
university
##tigo
microscopy
conversations
operant
pap
p27
transmitter
aedes
backward
c17
whisker
worms
##amn
ranging
regimes
anticipate
##ras
dnt
burk
quiescent
subn
¼
lj
∗∗
educators
collagenase
lpl
tps
床
##idate
towards
arising
triggered
divor
define
##rot
##ohex
aged
hemodynamic
asthma
award
##icked
rhodamine
uncon
drastic
##specific
325
i
##oir
y
legs
welfare
t8
##omotor
difluoride
obstructive
agil
belief
##atitude
inverted
ensuring
##lexes
microt
sts
eye
rhod
biases
branching
paradoxical
epilepsy
nail
caribbean
ornithine
ϐ
restricting
##plots
##house
rang
sh2
##173
periodontitis
##ompon
##上
hyperalges
paradoxically
caudate
##ws
added
##ilin
trail
intercal
##inately
pyreth
transitions
cyclin
##used
aneurysm
sirt
##esin
holds
adapting
vimentin
catchment
##idase
concentrate
cgg
j2
comorbidities
ahead
##ictus
constraints
ovid
discrepancy
quar
leyd
thiaz
afferent
##imolar
port
##剂
##atit
##nat
pcos
taper
hybrids
spermatogenesis
hos
##while
##还
pbl
mz
fish
searched
##ware
##ination
preprocess
##∩
##œ
donated
contracep
##acet
chem
##uscular
1964
sr
lilly
##℘
abut
taxonomic
##pling
insect
klebs
##eration
##anes
三
f1
reviewing
collaborative
altern
420
explored
##agia
protection
immunoprecipitates
##它
modifying
incarcer
adenocarcin
~
spir
inflow
activator
服
tc
entre
metabolically
immortal
dimers
blue
rv
defines
comparative
laur
osseous
##ellum
modul
##道
nmda
sati
h2a
fasc
account
aerosol
severity
electroph

written
##和
fecundity
frailty
metamorph
haemoglobin
concuss
trn
也
depression
haz
ems
hop
tric
stones
corresponds
⊓
biomechan
entail
challen
successful
##and
tun
##iel
sugar
provides
hrms
now
fault
fronti
carcinomas
dipole
villi
uncontrol
spectrophotometer
epinephrine
##gren
plastid
disl
tri
nmd
##kg
delinqu
phenotypes
paa
k3
##ago
prison
amphip
##un
cube
sarcopl
hypothesis
nanoparticles
eros
recommended
internationally
checked
##iaa
mycn
##lec
##←
fibrobl
gift
asm
,
肺
heterologous
antiangiogenic
proceeding
palpable
stemness
cal
##ollagen
belie
flanking
shadow
desensiti
actin
eff
ingu
inter
##ported
294
equivocal
acidity
stretched
aas
idi
学
gallbladder
adopted
chlamyd
##id
fluctuations
yap1
diaphragm
##era
##eq
anchor
sox
hb
##bial
carbohydrate
##imethyl
sway
##ione
ital
luminescence
##agglutin
biocompatibility
methodologies
institutional
##ged
resp
figs
thomas
necessarily
was
oz
requiring
deb
δf
bred
want
sah
millis
bronchial
tdp
##pheres
abundant
##fied
transmitting
##ava
chat
bodies
##hg
##orthy
delineate
teachers
intellig
covariates
lncap
stigma
cd5
stm
amplitude
##lam
knees
administered
incom
dropout
biomolecules
tos
yeast
migraine
province
forage
periplasmic
revolution
kept
dsa
493
##ipramine
⊧
paral
248
carriage
##entr
##bw
##rophic
deubiquitin
washington
interacted
urban
##avy
clearance
##ﬄ
##haus
repeatability
ing
summ
##elines
retrovirus
kingdom
bronchi
##water
##＞
##cnt
1972
myri
##xim
escape
bival
##oni
architectural
##acetate
leth
##hou
isotopes
spermatozoa
ficoll
isomerization
##ly
argenti
cream
d0
disproportionate
wors
cystatin
##atives
antiepileptic
stably
arbor
1960
magenta
alloys
peptides
##2s
##v6
capsul
##新
##utinib
##009
expresses
soleus
spaw
elusive
undefined
ugt
sugges
session
##˗
interru
##pots
differentiating
unrelated
abolishes
dilation
arises
##ik
replen
inevitably
drew
##aginal
##nx
spec
thy
body
突
bit
rec
ascribed
##arach
arabid
everyone
##eti
tangles
yes
jejunal
functionalized
palo
##isd
##neath
sew
mis
##δ2
dissociation
fh
vectors
specified
averaging
##unate
##ipl
ats
optogenetic
##ights
ncc
infliximab
hess
##ocin
music
bst
pp2a
rearrangements
sea
hub
##jin
copy
##station
##₁
##eding
catalyz
forces
##f10
modulus
feas
##oe
recognised
##nandez
electrophoresis
simplex
recapitulate
crim
##176
helsinki
locking
constitu
tones
##oxygen
registr
mediate
neurode
metronidazole
##uretic
##pren
fen
lasers
##ocellular
enamel
但
disassembly
389
##abol
example
gβ
compensated
participating
thaliana
seeding
underestimate
##曲
gdf
alloster
##itten
aetiology
relating
free
ctls
bent
heur
spectroscopy
ag
barcel
##70
eqtl
aminobutyric
adenocarcinomas
##ropl
macroscopic
think
##∴
nhej
practice
##idial
elmer
inhaled
upps
pub
tlr3
##rals
207
tenth
u2os
expectancy
lipofectamine
represented
responders
biocomp
overlying
##be
acceptance
diagram
##µ
intentions
kinematics
measurement
homologs
devoid
##me1
##oly
##inted
involve
midline
##anin
manure
nucleated
##erge
minimum
installation
##tisol
consecu
hydrol
integr
anticipatory
inducible
evolved
decom
fk506
chlorine
cd8
lx
incapable
fkbp
##➔
overexpressing
microcirc
##pine
##iosis
s3b
wn
acl
graphically
makers
esophagus
##k6
##˜
seropreval
conver
ethi
m6
sh3
schedule
hemostasis
##ylated
ra
predictions
psychiatric
##⁷
orthogonal
autoc
pme
quadric
表
garden
dat
xbp1
weighted
##ectors
##51
fed
reduction
suspect
nk
aec
##izability
##criptional
erythromycin
wt1
isch
σ
ke
fdr
reform
lcs
##istine
debate
bread
##pray
gn
arth
⋮
anorex
alkaloid
influencing
messages
##xs
lidocaine
##icillin
zer
hct116
taa
texts
##ocardi
mushroom
transcripts
probiotic
sexes
percenti
301
chemically
nu
socs3
30°c
ureth
pred
fon
##ible
omega
##serine
cloning
gangl
weiss
bah
excitotoxicity
hm
antagonistic
crosstalk
bleaching
clozapine
su
prosp
rupture
transformation
retinas
serot
addition
##icated
freshly
lie
pant
010
tall
vegf
gj
cloned
c3h
lactamase
transmembrane
recruited
##⋯
deposited
budding
34a
cann
symmetry
##yces
card
fuel
warning
w
##jan
##estinal
sure
alle
purpose
upl
contrasted
supplement
inadequ
mar
accel
##bridge
diffusion
norway
separations
##166
046
sel
surgical
‍
1
arrest
splenic
growing
2b
##ochemically
anesthesi
助
##alys
##imotor
spouses
anonymous
automatically
##据
##ofibr
immunogenicity
enhance
reven
baumann
shapiro
stric
seaw
fitted
upd
dehydrogen
seemingly
creatin
oxidant
callosum
##ectant
##gaa
cores
subsection
ng2
##ays
##men
weakened
##˝
transactivation
onc
dermat
±sd
##ization
reactor
acta
prolapse
377
##影
aberrations
walls
1b
roughness
appear
https
##ules
##lyl
hole
##olae
##oaded
apoe−
243
almost
##erts
continued
deformation
temporally
joined
pause
tables
feed
espec
negativity
larynx
cooper
##223
vu
β1
nanoc
consequ
decre
##506
ا
genders
hyphae
hplc
digestibility
distant
cox2
carers
清
1968
##比
leydig
##ccc
marg
semiquantit
ð
administer
powers
epstein
##observer
heidel
##257
sirnas
tcr
##克
##chol
rou
reasoning
evoke
eos
##olateral
interstitial
agnps
permeable
##ohep
qubit
##urized
cck
##abetic
##ole
##vale
##bra
##opolymer
globally
##ylv
oss
asn
gdnf
##edicine
##bc
germinal
037
provided
a2780
##jud
acceptability
##ψ
incubator
##otocin
elong
##psia
malondialdehyde
tev
##obarb
overweight
editing
1186
##atg
definition
vim
0000
similar
immunol
##tm
pulled
##gh
##flex
ppr
preca
methyltransferase
drainage
phenotypically
64
78
activations
regenerating
035
##flora
##mitt
microwave
ultrasound
segreg
##allic
glax
parties
recommendation
##iana
plateau
nutritional
guides
conjunction
organized
sequenced
dna
receptors
##idin
##oded
##terase
hamm
##ani
genech
##两
diameter
exfoli
emotions
ensuing
##hl
applic
g6pd
succession
veterin
by
##hr
##pert
##iking
downregulated
##itor
##asco
does
bpm
dysregulation
semiquantitative
clopidogrel
newcom
h3
c57bl
depicting
394
spurious
molar
iot
χ
tetraploid
chol
personalized
enthal
dressing
prokaryotic
seeking
losses
κb
##积
dvt
pomc
edin
postulate
016
facile
ə
broadly
separately
rpt
##matis
##⫫
##ugal
ophthal
bound
indonesia
##◊
pct
pentobarbital
cycloh
semin
##icola
cyanobacteria
ans
90
insufficient
cry1
lysine
encaps
interruption
##ipp
northwest
aza
unn
ifng
aar
pol
lenalidomide
pharyngeal
##ansas
guard
##fh
pret
synthetase
##yz
scaffold
p8
among
amyloid
sud
protrusions
chemotactic
pac
gliomas
designated
carotenoids
##报
internally
al
nph
neonate
condoms
gre
##azolam
##q1
##mix
##entive
retained
series
##enchyma
oct4
indianapolis
cred
ongoing
##partum
pbc
thi
inpatients
alto
virus
##orecep
injected
myelin
##enn
affordable
spf
##ocks
syphilis
lipoprotein
bedside
##angiect
govern
##unately
##uccin
audience
##47
##136
sorbitol
5×
grazing
rochester
tpm
hepatotoxicity
craving
##inous
stick
electrophoresed
connective
##bn
equals
出
sources
##lo
##imine
≥4
damages
recombinants
unfort
##etry
hots
preprocessing
replication
viet
carp
herpesvirus
ultras
##磷
guidance
spearman
unfavorable
phosphodies
clath
control
giving
##olding
absor
##ave
usability
mdct
268
##▸
coreg
iden
panic
##ustion
coordinating
refolding
##高
⍺
##ittal
performing
allografts
svz
quartile
allograft
htr
catheterization
fruit
sandwich
activ
dag
thompson
biomaterials
consecutively
##essor
into
islet
##obia
bioanalyzer
c18
cilium
##ographies
enrol
substance
##pfc
protonated
##omat
perioperative
##ech
distinctly
eighteen
ejac
spastic
ontologies
vestib
##amicin
synchrony
concurr
leis
waals
em
iron
segments
epochs
cure
assuming
univariable
before
t
hemispheric
##134
prp
##enda
在
pls
##⋃
trigeminal
##nal
ingestion
##kp
rearr
orn
##⌣
exert
##athan
##sch
##长
##dam
returning
exchanges
##tr
##anding
##ofi
utilised
rbm
corresponding
##iens
microl
##alin
nitrophenyl
viz
fel
maxim
aip
pharmingen
prolongation
supr
simvastatin
‴
##成
phone
##195
concentric
osteoblastic
retention
##quilibrium
discrimin
hind
##endoth
##oplast
342
polymorphic
atx
##fd
undetected
##uth
simplest
less
e8
##182
worsening
cdc25
##produc
mdr
brid
hemip
disin
│
rac
##ropyl
pro
drawbacks
sulfide
accessing
cow
riboflavin
cinnam
##ϑ
inflation
brachytherapy
adhd
hela
dissip
164
abnorm
videos
nef
panc
##sg
maternity
neurof
gingival
effectiveness
##orin
hyperpolarization
##yrate
amphiph
ups
controllable
##hp
sh
switches
condom
decade
cereus
hemat
rhoa
ie
hyperther
##论
𝒬
##⿿
viv
colocalized
##reh
##ench
pits
tut
microc
categorized
athlete
413
administration
##ophores
quarterly
microarrays
ler
fluence
##si
vend
ige
drb1
##ue
actually
practiced
proposition
comet
##unctional
##组
terti
iris
analyzer
ferm
peaking
applicable
molecule
pronounced
race
8000
_NAF_H
##径
answers
##tch
##gcg
mlc
ml
flt3
adenine
squared
##dom
psychologists
erythrocytes
advant
probiotics
hyaluron
occasional
occl
oropharyngeal
##bing
populations
walled
flap
pco2
twist1
##dehyd
##⧫
##l1
##255
690
pvc
mainland
sixty
##tir
ott
hap
gs
##nip
theory
messenger
##rows
kurt
##estr
##xa
够
##ogastric
infr
nes
harms
cgc
##∙
##inates
##yt
protective
laminin
fluid
475
washes
vertebr
5×10
refs
##差
reducing
ri
carotenoid
destroyed
310
breaking
##fect
##ulas
sound
##ospores
solving
02
disappoin
##etrical
preventive
felt
mim
detoxification
2table
sharp
2e
suspension
drink
helix
##pb
sis
cfse
jen
stochastic
vibrations
intention
kcl
proportionally
really
logical
identifier
anteroposterior
##protected
vlps
darker
μl
9c
hairpin
contour
dur
##acyt
matr
subjective
films
management
maintaining
preserving
cranial
redund
stx
##eca
inconsistency
pharma
horseradish
##ogeneic
dies
cephal
preterm
aav2
2013b
##idae
##研
##pass
cargo
##ela
threat
pleasure
largely
crt
cleaves
igfbp
goats
##ang
kits
diagnostics
interleukin
buccal
sls
origin
intercourse
immunohistochemically
photochemical
disag
##faction
argue
hrt
t32
##ivity
skov
##ocratic
identified
formats
phrase
transferrin
##umental
❖
epile
rooted
##oll
cyclosporine
##amili
mere
gsk3
##306
underpinning
##ontech
amylase
##aaaa
ic
sterol
novo
sinusoidal
shed
meth
referenced
##gel
wellness
dedicated
impede
paired
habits
p21
borders
nematodes
portuguese
anorexia
##ctct
agglutin
→
anoph
neurobiological
bladder
270
tied
##rology
antioxid
nearly
##ended
aphasia
##ians
体
asthm
regulates
hyperactivity
histamine
children
gastroenteritis
##tid
subspec
##aud
diameters
proceeded
bronchodil
arcuate
##tions
##iti
339
tgf
salin
multif
##transferases
aging
ˆ
passages
nup
incl
deriving
ncr
排
adhere
tog
filtered
emphas
collab
residual
find
epp
lymphangi
refusal
cyclospor
##gest
heterozygous
ank
##我
associate
cryopreservation
minimize
narr
tongue
distor
intrauterine
isoform
##aces
robustly
0004
pfge
meter
attended
cdr
cla
##ollen
anteriorly
肝
catalyze
annexin
dwarf
##opodia
landscape
fission
##oidy
jo
coffee
mineralized
opposition
biotec
preformed
throm
nebul
##ureth
korean
osmolarity
##andial
date
##ip3
##otherapy
exerts
cascades
plank
ɑ
northern
bruc
molars
##utter
excellence
distraction
covariance
##ier
bx
oes
6g
glc
gpcrs
incub
allogr
ils
filaments
##drs
473
ym
##ex
listeria
thrombosis
##no
quantifying
ripening
##id50
unequiv
phylogenetically
space
gee
cognate
bacterial
tub
hereafter
interactions
##±4
gordon
##є
idea
calculated
subd
hyperplasia
ther
受
##rum
##aws
δδ
lor
gcs
##oconstr
slices
esr1
investigators
##►
thickened
013
motoneurons
##owitz
multipotent
mcc
ttg
ocul
catalogue
books
##∂
##作
conventionally
quad
cpm
##µm
##iseq
##flox
lysophosph
pge2
style
suppressors
20th
##part
##iers
ligament
univers
b1
micelle
p62
mt
grown
##obi
thinning
hyperm
intram
correlating
hym
s12
##ˉ
##ange
detecting
physiologically
posttraumatic
outcomes
massachus
rome
##erve
stra
lies
topological
guil
egypt
liberal
integrity
concerted
urbanization
elevations
##⁶
larval
##好
syn
outc
##oscope
volumetric
h3k27me3
##靶
##uria
biomed
##♦
kinetoch
##1e
##omical
linking
assisted
##ls
##缺
mentors
l
endocytic
mef2
genechip
inform
案
veget
valued
##g0
hypoxemia
##cr1
mglu
##░
reimburs
intersection
##orh
quotient
525
##b2
##oro
stopping
##cephaly
unmeas
compete
kup
loci
retraction
puc
recalc
density
equ
beyotime
leuc
##arter
metron
licensed
fusion
ß
ei
varied
fingerprint
sob
thus
occupational
encompassed
ohio
healthier
urethral
auxiliary
carbonyl
##ellites
bar
odys
##luc
investigation
noradrenergic
##aga
pkm2
becomes
discl
##ikv
##ptic
outreach
measured
hob
stretches
strict
kinematic
pros
fungus
rodriguez
##ofib
twenty
##pcr
microstructure
##uration
interpreted
monocytogenes
##gran
##者
xylan
pca
submucosal
inflammasome
offline
brack
##þ
sp
treatment
##aly
##osom
development
therapist
remodeling
##bt
见
slurry
_NAF_R
hematopoiesis
blade
washout
reson
##163
taking
##118
pot
curric
indig
##icz
hash
##b6
movie
ℵ
beads
##nut
sonication
qualit
implications
##够
orbitofrontal
##ails
ccp
upregulate
rise
##与
lsd1
melanomas
ef
hydr
phr
modulated
delays
ord
他
ampk
foods
huc
ane
underl
bioc
antih
aug
vo2
g4
pals
elbow
dwelling
hone
##castle
##osex
imbalance
longitudinally
##its
desm
indica
denied
allocated
samples
solutes
ish
frame
bifurc
##rotic
##omnia
同
antitumor
hels
##udge
##me3
lq
aimed
overdose
emulsion
##ethylated
resection
xr
cran
pathogenicity
printing
dispro
dal
shh
##cttt
diaminobenzidine
##需
inducers
‰
antimicrobial
exit
tolu
enabling
gel
streptom
different
intensities
microgl
adrenocept
##cemic
livestock
improving
d1
amb
array
##isms
3h
marginal
intervertebral
avail
advances
climbing
assure
##growth
aba
##umor
anticoagul
occas
early
addgene
##ucle
queen
produced
animals
positives
necessit
sst
hoff
pdms
##ˊ
overhang
immunoreactivity
inatt
poliovirus
qual
tq
genomes
hmgb1
accreditation
infant
dako
deterioration
multifactorial
##predict
rech
vasculature
endocrin
##ux
##373
soybean
revascular
##ubiquitin
e7
upon
##osin
serially
aha
##ois
##amphetamine
optimal
源
##ygd
utilisation
amphotericin
vl
checklist
##ф
##004
##bad
eating
gpx
µ
overs
##ective
cell
caveat
insulin
hear
perception
gc
indicating
nrf2
clonogenic
photographs
##traumatic
##202
easier
##ospecific
criterion
##trained
orange
paralog
sampl
offenders
sinus
175
conve
definitively
##37
##oves
calcifications
##re
argin
irin
cannot
##transferase
##ecal
5p
logarithmic
consolid
mass
##∠
implantable
##udin
lacking
cysts
hcc
t47
θ
morb
evoked
carefully
calmodulin
##ized
mdm2
sulph
≜
pancreas
killing
antarc
##ophag
185
syst
050
pin
enterobacter
agon
alzheimer
colonization
cath
propor
cx
declaration
##roterenol
nim
4g
##ma
krebs
py
gd
conv
herpes
complemented
presently
previously
##anesulf
establishes
##unc
vision
cdc2
ganglia
oxo
flowjo
astrocyt
##erty
discussing
why
df
222
electroporation
chondroitin
##opausal
tro
kenned
##阳
##essel
probnp
elabor
##ŋ
signals
medications
patterning
##taining
##508
mutually
immun
dyn
nigr
mex
imidazole
industrial
pl
fermented
jaundice
solubilization
chimeric
##gp
hypercal
follows
improve
∘
transferring
控
hedge
proliferative
retarded
##reg
simultaneous
th
hyd
ingenuity
indicate
scanners
faces
twelve
locked
##inum
##˙
trabecular
##imentary
marginally
hypop
##using
##ther
grant
fps
##ylaxis
hass
regularization
##eximide
decou
blocked
plas
congestive
silenced
##uta
##女
236
worn
genis
equally
mean
preparative
mueller
##41
ternary
postpartum
##itc
b12
assistance
##iterp
##our
##arma
european
##atile
marsh
diagr
indole
p120
fractionated
dots
##8a
nucleus
informatics
##ared
susceptible
##thalm
allodynia
natural
arousal
rom
eight
promote
decompression
eot
mucous
##ders
cerv
piglets
##ectable
##uzz
cert
共
luminescent
progenitor
elastic
granted
rotor
economic
packet
diagnosing
##ophenol
upr
taf
recip
reviewers
##cales
binding
sporadic
pel
immobilized
##iated
##angers
disposition
dysfunction
432
luciferase
jung
##cnac
parsimonious
icu
##域
progr
##inj
psychological
discriminate
appearing
voluntary
rfl
cuts
length
pruning
##mium
computers
incorporating
autis
har
e2
##ii
##unted
incontin
steel
##iden
deposition
##国
dong
intrath
##iomas
routine
permeabil
##iatus
solar
gadolinium
##276
tsp
halluc
η2
morphologies
fao
gla
appraisal
27
instrument
##zer
⇔
14
##odynamic
healed
##心
unless
sv
trafficking
##electron
interpret
opioid
stranded
mism
ecc
pul
drivers
roughly
heparan
myocyte
##acillin
##gcag
nucleic
seawater
myofib
nde
t001
atrioventricular
waist
amount
econ
ntr
395
##axis
protr
hut
pax
##zymes
##ready
admission
incontinence
murphy
ferment
switzerland
ultrafiltration
ak
mold
adr
lengths
glut
##urnal
##ne
indones
catalytic
sophistic
emerges
##atory
ura3
phenomenon
palsy
##olem
substitute
epitope
pthr
##itating
arterial
t47d
scatter
chws
males
randomised
##clc
tends
classifications
imr
medicare
id
##inform
##here
sy
cab
camb
migrant
conversely
tracks
mnsod
vagus
##ures
pmma
顺
tendency
place
cylind
染
##yst
##pol
gefitinib
##ocycl
##vier
spe
anterior
nsaids
##anson
dense
feces
guiding
radiotherapy
##echan
lewy
鳞
structures
267
neurophys
itch
polished
ctb
nn
##ng
bank
triglyceride
reduces
parasitemia
cingulate
centro
细
green
jordan
##elium
fishes
##回
oligo
##ulin
state
##ibr
##pole
量
hematopoietic
caspases
rins
double
inhabit
other
##chin
fluctu
pde
pher
##odex
##tained
inher
differentially
apoa
hbv
flies
##esus
比
cron
monomers
mtc
dying
depict
flowering
uncons
pigment
##esized
ey
multiplied
019
dut
requ
##ifier
tool
carib
did
phenyle
24
universal
##astig
plasm
risks
##ona
cham
arrangement
radix
rendered
##opic
om
transduced
symptomatology
modify
lir
bottom
rigidity
aldh
wealth
vv
buprenorphine
avi
cafs
applications
##hib
amaz
multiplic
##aploid
concluded
phospho
fre
［
##zu
biofilm
increasing
apple
justif
low
umbilical
##mscs
asians
cit
sci
ftsz
##adec
compliant
##科
localization
##ǂ
mc
cytochrome
blotting
##ovir
anxiety
constructed
fermi
microvascular
pho
cas
appealing
2009b
volumes
##加
##urally
reversion
appointments
yog
oligosaccharides
consulting
helicobacter
biotin
characterization
##ell
unaware
缺
circles
biomarkers
##tig
independence
angiographic
solids
fee
fail
##oplasts
listen
deparaffinized
frequently
hg
microsystems
ccg
##keletal
commands
##orphism
aquapor
pink
##s6
##ors
##gtt
##生
mesoth
secretase
microch
oncologists
##野
thail
fathers
k12
none
##ocalcin
atyp
proced
ryr2
permeabilization
antibiotic
revised
constrained
metalloprotein
hyg
confidentiality
noticed
040
nonsyn
prostatectomy
1640
包
ball
sirna
shir
##menting
##nd
submitted
vent
1600
neurop
whr
remains
contained
录
mao
skov3
wisc
stake
sae
##elmer
vocab
unambiguous
handed
##eth
图
caud
psychophys
legends
distally
manganese
drawing
thalidomide
accom
ventr
aggress
y1
^
variance
radiolab
eyelid
adher
##app
commitment
##io2
facing
##16a
super
bms
##tia
hpf
##umar
blink
seasonality
##78
fried
malign
infin
gadd
##idemia
deoxych
##凋
gk
originating
reco
##imil
##94
##illus
nonsm
sex
tail
##t1
cher
κ
actinomycin
移
hemic
h4
##onuclease
entit
hscs
##仅
african
baseline
leaves
##penoids
abnormality
referrals
oxphos
1l
##因
genes
7500
unremarkable
atc
##126
army
##uro
the
benz
##ativeness
medic
antiretroviral
ryan
##users
execution
##zi
sphing
priv
aster
repeating
pis
observations
基
achieves
perturb
##ages
abnormal
foxo
organisations
fati
uw
homogeneous
##50
##irect
developing
crist
mmtv
acg
archive
conducted
ovx
formula
film
ejection
whilst
sect
paras
minim
amil
##bl
##list
outliers
vh
encapsulation
dexmedetomidine
检
mechan
phenotypic
cleave
television
##ere
##atial
alkaloids
47
tsh
##active
zero
catalys
spectrometry
trajectory
amygdala
##lp
##itely
saturating
displ
doxorubicin
rud
obstacle
femur
usa
##析
##iform
##omeric
chl
agonistic
##oxicity
smad1
wechsler
h5n1
depend
alcoholic
timescale
xenografts
diet
437
prioriti
mad2
split
constriction
characterizes
tryptophan
colorimetric
francis
radiologist
ald
sequestered
amplification
warm
##nc
spm
11a
turns
##odynamics
tactile
feeding
##enti
klf
bran
narrower
ran
cox
italy
»
va
voltages
##yc
minne
salivary
##⋅
full
fin
elderly
##iatric
xbai
keeping
##af1
##nl
ging
autocrine
fellow
ips
most
448
##va
##actyl
©
doubling
##phosphorylation
cytotoxic
fearful
reynolds
cattle
kruskal
empirically
comput
radiologists
1976
discriminative
nachr
##cast
nanog
lifestyles
director
serine
tropism
oly
##orn
overlap
##eed
steadily
silicone
lcr
293t
cpe
solitary
osteomyelitis
renilla
dorsolateral
pum
##tek
circr
report
shah
##urge
proton
amoxicillin
##r3
dis
1989
生
intercept
glycolysis
sheath
igt
##
anaplastic
sentence
cdk4
cathepsin
##1s
meas
##port
glas
[S]
##ale
immigrant
382
hypo
vein
##x5
价
researchers
ac
karyotype
chiro
##ung
infusions
##mo
cop
##amoto
resc
complex
##och
uva
##fig
##ows
##ashes
fluidity
##kephal
angpt
##rocyte
vaccinated
c2
spr
pp
orders
##obutyric
oroph
stein
##pati
##fected
haploid
flexibility
##c
##ɛ
nss
agricultural
bicarbonate
##lut
tas
ϒ
perspectives
②
atheroscler
therapies
f
ix
##查
←
##omatosis
thf
##aplan
##inger
scramb
quasi
##co
##ophyl
##non
##tedly
predicting
##ay
grossly
partition
amplicon
##ygb
normalization
##essed
bard
autonomy
##osphere
sleepiness
morgan
##cemia
rxr
##uel
falling
hox
victim
architect
##ni
electrocardi
nice
##yl
imid
latent
aggr
separ
jiangsu
unpre
constructs
##将
illness
"
所
distric
encountered
##yx
conference
longitud
necessitates
patency
prothrombin
gao
1963
carbonate
##ard
riboswitch
ribo
bridge
445
##ct
periodon
spacer
##oxide
anchorage
##issible
organelles
amplified
##arietal
structurally
erk
##olecular
jev
##in
pater
comprehensive
twins
hardness
psp
ru
serotonin
overall
detects
cyan
htn
analyzes
sponge
##uc
##utz
thereby
vienna
aro
1979
lit
##ulins
aeti
3g
necrosis
yc
pos
φ
alloc
syncope
xf
lining
sliding
guest
engine
转
debrid
weighting
isopren
melanin
influenced
planted
##eless
wg
graduate
prodrug
firm
chd
gins
stands
ancestral
##l2
##277
thermal
notation
donor
bootstrap
possessing
##aining
model
entitled
aspirated
##are
diffr
##areness
integrating
wide
become
##3k
##uish
occurr
436
reconstituted
gli
multiplex
##阻
indicator
1995
burs
flooding
macula
cleavage
nonsmokers
ventilatory
undes
measures
optical
bp
stomach
corning
spars
suv
##ropol
mitchell
vinyl
##imetic
antiretro
mglur
ethylene
retrieved
confirmatory
ossification
fk
##g3
couples
ingested
enantiomers
traditional
enhancer
azim
##ilateral
##248
although
pp2
consequent
##che
##ify
insurance
shrna
nah
##tan
obstr
##yb
terminally
##bd
nonc
cnv
trimethyl
##rome
titr
##rb
phd
motone
matched
tocop
导
rmsd
osteoblast
##ocally
gl
##ortical
##itrap
##aking
metastatic
ʋ
talk
parap
lich
key
apr
##ipt
compatibility
immers
paraformaldehyde
plk1
⊿
algorithms
vulgaris
inpatient
leishmania
##ortal
##΄
##505
implied
import
tumor
reservoir
preoperative
demonstrated
weather
##ume
transfers
municipality
##iol
quik
##certain
і
##prenorphine
lysed
##tiveness
pins
sgc
alignments
richard
##naec
dext
displayed
coactivator
asic
rbp
relied
rn
cardiomy
japanese
##enchyme
emph
药
##ounding
tapered
deion
circuitry
es
shore
metalloproteinases
adjuv
prev
diffraction
oblique
scav
glue
peanut
##uliar
rehabilitation
common
beats
bost
radiography
alkal
cohesion
allelic
170
cyclooxygenase
absence
poverty
##obs
specialties
at1
633
##flow
vox
raav
等
leakage
⊖
hols
sadness
##whel
seropositivity
evacuation
candidates
д
expend
poison
mainst
displays
unselected
verified
##asm
auc
##⇆
##vation
##uting
sym
##ptom
hl
stool
fanc
endogenous
##265
rectangle
hscrp
ranked
coupling
##d
##ipping
washed
fungic
substr
а
drawback
##∣
ultrason
frank
##olino
periodontal
grass
##filament
peroxisome
ɪ
merist
##opathy
normal
unprotected
pik3ca
febrile
respir
##otrypsin
##atization
tsc
##oxia
rep
disproportionately
importantly
entrance
repress
phylum
htert
rois
traumatic
8d
love
mce
##´
ionic
##ete
zhe
typically
##技
##rock
martine
##atoxin
concurrently
happen
##ren
##247
soft
##ats
discusses
apolipoprotein
nucleoside
1985
lay
ito
grasp
unaffected
neurodegeneration
inconclusive
nip
diastole
pkc
1table
培
##tiform
annotation
desicc
我
##iflozin
glasses
wasp
biosciences
csd
##kn
ccrcc
stepping
concre
methyl
##roch
tp
waveforms
pouch
electrochemical
sine
7b
nscs
##ited
##edic
retic
manipulating
##uling
arteries
##tillation
visits
misdiagn
goals
bcl2
mob
##究
upreg
dashed
infest
##otide
##opathic
hfs
liang
kaz
virg
neurosurgery
constitutive
##put
##isy
##验
microbiome
##acetyl
##istatin
abbreviations
identification
fixing
##接
注
##entially
ap1
2006
eat
horizontally
eleg
##erry
##alent
bioenerge
appoint
益
486
adcc
glutath
raphe
sporulation
##rv
ppe
whatever
adherence
commenced
e12
scc
atorvastatin
##ensors
positive
arab
euro
supernat
dentists
cgrp
cooperativity
##agg
loaded
coinc
phenomena
dissected
##vement
surfactants
rnaseq
homozygotes
provide
relief
speculative
principally
obj
represses
600
##变
spirit
enlargement
##aryl
comparing
s100
##opolym
##olone
##254
powder
##pression
gonadotropin
##ored
biops
forest
bif
iw
ddh
vari
ipr
##nas
emo
glucocortic
coordinator
##ɤ
opc
undoub
lpa
a4
##ifug
node
poc
represent
唑
not
phagocytosis
##enan
implement
injury
their
##idium
molecules
##den
helices
picture
madison
naming
percentages
##索
##istration
enrich
relaxation
norwegian
cir
allen
sort
tts
ferro
unedited
counteract
infect
##lab
neither
##organ
##uistic
oestrogen
##oplasmic
999
misfolding
stress
##art
##anz
isothi
##zz
fear
basilar
assemblies
##oval
msn
mitochondr
##tinin
##自
harbored
hev
encoun
##opl
academy
flows
##fully
trifluor
p22
##ony
retina
whiskers
##mented
##adish
serr
rooms
pcmv
complexation
diazep
attract
##2δ
r2
ventricles
xi
sum
##atable
minimizes
##ycardia
##切
melanocytes
##6c
sulfated
770
ulceration
naf
oncology
citable
hh
gut
##eri
pdr
##onectin
wal
headaches
cascade
inconsistent
##lation
depar
ago
ls
malt
mounted
understand
rem
portugal
mog
arrhythmia
penetrating
##晚
feeds
minimise
##bands
}
tm
rid
biosynth
##stone
ureteral
tracker
electrosp
ben
δm
effect
##ometrics
##izes
##thi
photoreceptors
rw
hand
myeloperoxidase
4e
intercellular
##鳞
⁹
recombination
##yv
colitis
cyp3a4
molec
##rote
##ocation
maryland
quadrants
fus
494
kaw
jur
cyclic
##ariate
variants
antico
alter
tgs
##enem
audi
collateral
genetically
oligonucleotide
nonr
nucleation
mathworks
hung
pdi
isoforms
starvation
calculation
knife
lif
##yster
##his
subcateg
autonomic
mart
##b7
223
assault
##d4
precision
transit
##heresis
estimations
extravasation
carboxy
phytochemical
unequ
compos
loops
csm
##acer
‖
iz
dodecyl
outlet
maintain
pneumonia
77
retinopathy
##300
hem
fm
decarboxylase
mons
binds
214
halves
orifice
2g
polyacrylamide
##pr1
mtl
##ospec
posed
signal
##gar
##espiratory
tunic
tia
##osity
humidity
surface
radioimmunoassay
immunosuppress
eis
1970s
titration
o1
##incter
vitrectomy
lov
seconds
##ias
autogr
ligated
section
gct
##illing
plexus
cyp2c19
affairs
mainstay
##endym
han
𝒱
##kit
supervision
cxcl
##ati
##onymous
psychotherapy
abandoned
greg
seated
needed
questionnaires
##и
maintenance
drug
##ℱ
ever
migratory
⊆
novel
chronological
##ient
然
evolutionarily
spill
haplogroup
consor
prac
protein
##oleic
wakefulness
##embly
electrically
##idi
##hip
gdna
imatinib
∽
殖
dominates
exc
adult
ccc
##cript
##dine
sewage
oppos
supra
##kary
alu
pmf
smoking
##pa1
给
1300
##267
##rob
pakistan
prim
nasc
##善
1990s
closing
dcf
##antom
tetramer
##ider
record
ree
∼10
lar
##bpa
##转
diamidino
devoted
自
confirmed
indirectly
u01
normot
operative
##osylation
commission
immunodeficient
##implantation
cros
tidal
ʻ
##obacter
ipd
accelerometer
rs7
kb
sens
tubes
flavonoid
graft
mos2
economically
##change
##gfp
mbp
missed
bbs
##ified
##opol
##riol
mah
arctic
smad3
fusarium
hbx
awarded
prote
##ɣ
quantify
laminar
volt
profession
##atids
bcc
slo
granzyme
pei
surgically
##greg
##crip
thymic
##于
fts
##▼
33
##po4
##estock
mct
underweight
##iodarone
dev
hydroly
whe
genotyp
psa
computations
uc
##otropin
congenital
alcoholism
##brain
##odies
crf
gynecology
##itre
##kinesia
err
##more
amp
tris
indispens
desert
hydrogel
2r
sem
hydrogels
nuc
ancest
facilit
##阴
since
##eland
lycopene
##mi
modulators
gently
##iry
pitch
insecticide
##cp
youth
exposing
zika
so2
fused
agricult
costly
serovar
schematic
visible
girls
medi
##opathology
effects
##elles
##ystall
tkis
fluoroquin
publications
ntg
circumst
suggestion
##matism
##ionic
fluxes
receiving
##周
##qol
limb
programmed
circrnas
##pa
status
vasodil
interquartile
pathophysiological
##𝒦
receptive
locus
efficiency
ordering
homeost
caution
modules
##sin
accomplished
##itrogen
##mcs
##ar1
identi
dissolved
environments
quercetin
##ye
backb
similarity
6
tunel
reprogramm
institut
attributes
##数
anast
pico
clamping
hud
##¾
##ught
lp
reap
##gian
isotonic
dehydrated
##neys
burling
##icon
roi
ε
theoretically
rand
alcohols
plotting
meps
##65
nelson
synt
maj
##yo
##ivers
mercaptoethanol
condyle
##rophin
##ape
##aria
##ail
##plot
instruction
1983
uta
magnetic
持
leg
dl
gabapentin
##illary
##erm
##antigen
12th
##oking
##viral
nemat
drops
retard
tcp
225
##weigh
ciprofloxacin
manager
litterm
供
studying
##odopa
##iston
5hmc
commercially
cauc
th2
密
##ceptib
4h
322
ele
femoral
##h
sybr
oligosaccharide
igg1
cm3
curcumin
##d1
reproducibility
pix
##ains
nanotubes
##otoxin
curv
phl
emergence
fram
evalu
latency
##anged
fatig
feasible
blind
134
congeners
mtor
##rofloxacin
##90m
cholangi
morris
131
undergone
prolonged
distances
telomeres
worsened
determination
maf
duplicated
unweighted
good
##rought
india
npc
defe
sensation
focused
declines
症
biologics
bey
radicals
1st
##li
##aver
sock
##ivation
lichen
manifests
##antine
##ogalact
came
##atases
bite
##vac
ancestor
predominant
occupancy
sv40
##lex
##irr
socs
pps
##ycle
##tera
diphosphate
##ack
##rella
sulfon
contraindications
##jima
genbank
preinc
sna
physics
atf6
technicians
chicken
##cine
presch
cxcr4
asi
ganglion
differences
carbachol
##cri
elucidate
rs10
dissolve
dyspnea
rota
elevation
##ita
##cholinesterase
##о
##uterine
##26
micrograms
³
##ahed
npr
¥
hif1α
32
fg
ears
##08
##itro
syndrome
promise
regularly
methox
##ators
##ɪ
##atran
intriguing
twin
meanings
capsids
gi
indic
gover
enorm
ex
centrally
dip
adduc
concentr
orchestr
rmsea
”
outpatients
shall
mexico
activin
imped
pcs
##ke
endometriosis
##404
##𝒪
certain
enumeration
varieties
interpro
##‬
ptp1b
wider
quintile
##nel
peptic
observer
##€
discordant
##tanding
microbiol
clips
##占
dos
remnant
envision
##cep
##eptides
##amide
contaminating
hypothyroidism
hydroxy
pdcs
##orferi
a1c
##urated
undertook
german
hrs
iter
sal
neurobiology
markets
neoadjuvant
pitu
globe
##erate
178
##52
gamma
anomaly
turbidity
##engers
various
—
matches
adequate
physi
449
premotor
##107
shannon
examining
pyroph
splenocytes
contr
incentives
dial
immuno
262
infrequent
cmax
##icin
orf
##urr
##dis
vinculin
山
debilitating
##onium
75
wrn
##oblasts
ure
面
lateral
nonspecific
suggestive
unfolding
rsa
sharply
##phone
titanium
discrim
results
156
##ca
bayes
candid
##389
airway
short
##36
hib
aluminium
gout
##125
deuts
rejected
pig
married
scand
##ulse
―
ocean
compared
morph
estimating
trade
hpv
是
760
gathering
##enic
sedent
##methyl
rece
c2c12
affects
##oys
subtr
infl
制
##oprot
though
determinants
trig
cheng
sched
lncrnas
subclass
heterodimers
##osyn
your
##44
aux
1n
##ap
##idis
gold
real
gather
esc
altering
rhodopsin
ⅳ
andre
latinos
p53
##las
subs
pups
##iled
foraging
emer
nomencl
evenly
feeling
##ubertal
k14
crisis
##clim
diff
##ax
##ch2
ingredients
nicotine
universally
sheets
##88
##drug
##eu
占
listening
larva
employees
groundwater
fut
获
nect
##onucle
leukemic
mdd
hel
patients
compet
dntp
##omycetes
acclim
mercury
phosphorylates
alumin
miz
184
序
beij
##tica
qr
estim
hypothalamus
convergent
##unn
concentrations
##itr
##ark
028
##lei
activity
heritability
ptsd
requests
paracrine
threatened
combustion
efferent
ammon
infarction
midazolam
cu2
gels
sgrna
##arring
kend
acanth
managers
##etrically
contemporary
kinetochore
lepro
competit
microcirculation
shut
hydrate
positively
manipulated
acclimation
worsen
photorecep
##asure
css
introduce
unemployed
professional
##enses
b16
coupl
##rox
expand
##activeness
##acyl
达
##glutin
##inally
##ocomp
rer
##odipine
˂
##diagn
macros
›
##oracic
technological
interference
prb
hierarchy
pbst
antiplat
##ystin
valine
confer
meet
lighting
−3
##titer
bonds
reinstatement
nether
##omyel
character
##ayers
encl
124
snail
##ug
##tation
rules
delivered
photoperiod
phq
prop
tab
31p
##abilities
##ulators
quanti
##ouracil
mpl
fil
supramolecular
hp
synaptic
tier
v
##glycer
##elect
opin
cardiometabolic
payment
lessons
commens
kh
decided
subreg
commented
chip
gpc
##baum
perturbed
##it
concordant
cba
##zl
bamhi
year
h3n2
lymphomas
##arate
isopropanol
nocodazole
interc
tag
##yzed
ethanol
surpass
thousand
##esia
just
breakfast
kill
refractive
performs
dba
2×10
##itig
##ɑ
##ifying
batteries
aom
inr
99mtc
##ics
anthrop
comprised
√
cords
##a2
##3
thre
lumin
regulate
##uring
opt
outbreaks
570
##oble
carnitine
shortening
stiffness
seriously
ulcerative
enterocytes
publishing
philos
autophosphor
##000
looked
13c
agt
21st
##opeptidase
liz
volatile
catheter
##1δ
unsatis
face
##izz
阴
medicines
inert
guarantee
##o2
pedicle
practitioner
massive
##adow
004
##ried
recovering
##指
mcl
##inex
cant
expression
programs
lasso
companies
persistently
electrophysiological
faster
##ographically
##ʟ
##onit
vp1
##⊣
abca1
isopropyl
lacc
traveling
loosely
##ʺ
correlations
eigenval
departure
reticular
anterograde
equilibr
##瘤
##tially
stabilization
hospitals
##p1b
hamper
cd3
sag
7g
buds
imputation
≈
irradi
ago2
beings
crystallography
overcome
##ulties
toxicological
##≅
saccades
rls
micrometer
响
barium
tracer
dilemma
##ign
conidi
fond
##∪
materials
boos
dimer
##69
scientist
##ike
1982
resonant
##cn
polymorph
mimetic
##esting
gsea
qtl
##terdam
crystals
ais
##536
bel
concom
wish
recanal
ʊ
nanofib
knockouts
multiplexed
##w7
terminology
ding
##pp
cohen
##aromyces
informants
modulate
cu
icd
clear
##234
##mingham
##iveness
46
##ytic
cofil
##ium
bf
##≡
##𝐫
sciss
promotion
adni
##≫
bacter
##ancy
##anal
lesser
adap
experiments
easily
##atus
cse
х
##hes
tempo
come
intra
lymphoma
sectioning
myc
leon
roots
##g4
those
scha
##ovs
conte
screened
challenges
##rogen
##ankton
yet
mer
##imab
keywords
upar
moiety
antioxidants
extr
ancient
##usive
mur
correctly
aqp
ipil
useful
jump
cessation
micelles
george
oligodendrocyte
sol
cook
##amivir
##ox1
emotion
gradients
illumin
parasitic
##algae
pretest
mobile
##ning
303
publisher
dai
microdiss
⋂
acetylcholine
bios
bial
tapping
percentage
therapy
hypertonic
371
homologues
enable
ads
vat
flt
##agnetic
##∷
##≤0
bottleneck
lux
lna
carto
##ifolia
##edics
overwhel
principles
fetuses
imagej
attitudes
##zel
expenses
horizontal
##rep
incons
electrom
nanodrop
thromboembolic
hepes
rcts
influential
stance
##ault
alph
4
##2000
##uld
trypsinized
##anoyl
inkt
ξ
##activity
conn
cultural
pgl
2010b
jug
⋅
fox
folds
h−1
discern
interrelations
bee
legislation
decisions
38
取
##ll
##pin
drive
cytometry
##¤
gentamicin
transcribed
immunofluorescence
nanoscale
calmod
child
underscore
##vm
者
power
##部
linear
unlik
disordered
clones
bulle
##iven
##aa
james
ehr
demand
draw
mountain
beyond
正
ck
##olus
##ascular
sip
##chen
##elected
confirm
○
##∸
##½
pip2
dairy
benefited
iugr
mobility
preferential
canopy
mobil
birmingham
intergroup
##1a
images
apoc
doctor
benefit
nucleoli
engulf
##ozygous
fabricated
oncological
grating
##k2
##ecia
as
##ophage
ai
337
opinions
##ein
##304
2−
microbial
##omide
conidia
proprioceptive
##ding
##car
weeks
undertake
solvents
信
pace
glabr
dock
impose
repetitions
crna
averaged
robert
arrow
##ached
laryngeal
##t
adaptive
pathologists
stretching
consolidated
##tures
micros
match
collisions
##ually
##okinase
star
rps
##pora
##ospinal
boutons
cko
tl
shading
hilden
multifaceted
##aten
tiss
cholecyst
histopathologic
rosa
postp
mad
scheduled
##igr
grey
torr
overpro
bab
►
applied
surfactant
examines
modifiers
##∽
直
secret
deoxy
##dx
transforms
databases
converted
##igenic
##empor
raz
connectivity
resonances
print
doll
bromide
symbion
printed
sers
##nary
rubber
identifying
introduc
carrageenan
dor
psf
geographic
##illin
##ε
##illo
##ticism
began
adjuvants
harness
公
clock
herein
alp
hypox
heel
eradication
qualitative
ℬ
##qi
dosages
penetrance
vk
sd
hoech
leaflets
519
sydney
extrapol
augment
microgr
shelter
285
𝐱
kel
aquac
treating
fet
515
disagreement
subthreshold
步
##ameth
ek
20×
fac
pesticide
consumer
enables
igd
##antit
pass
cancerous
loud
inte
expose
posts
local
syr
##igl
spouse
mln
stim1
generation
shen
arranged
ffpe
##otoxins
forear
tul
infusion
perforation
36
tonic
##ulmonary
placenta
param
pulses
engaged
observers
##othing
conferring
consistency
pump
α1
stressors
swelling
polyp
assist
unobs
alber
##anna
recalled
##aned
endocrine
rinsing
##array
unexplained
1016
pri
##h3
##1−
overestimated
2mm
kv
hemolytic
ssc
##um
##level
resin
𝒢
trib
##ifferentiated
invading
erec
##amethyl
correlated
output
洛
enzymatic
##ecton
bins
vire
gbs
a2a
controlled
##gac
brazilian
wellbeing
collected
4a
##keys
##980
asbest
##ipes
5c
o
dnas
##ubated
esa
underlies
c1
electronic
empty
##obac
eclam
cbt
excellent
accepted
source
##bral
disturb
##小
ovariectomized
sweden
rub
novagen
043
##yly
marking
intuitive
small
##elt
brca
uncover
ribosome
##heads
bradycardia
vulner
##tains
subgen
##sey
numerous
them
mth
arsenite
cleaving
##otox
rnas
testicular
##akes
disent
isoc
covering
soil
enforce
silencing
underscores
troponin
retrospective
reluct
interfered
##abc
##let
locality
ict
≫
lord
##olytic
bod
tcdd
quality
##de
blo
destr
preclude
discharges
gone
bioassay
overproduction
detector
tg
##anth
##gr
started
caucasian
banding
binders
counterbalanced
##encies
pparg
rd
aberration
##前
gerd
homogene
##tl
##bg
##acat
171
c16
##otypic
breathing
##≔
224
posttranslational
satiety
##ock
cannula
hazardous
disabled
aad
thereafter
##inement
autonom
daw
dereg
lowered
localize
trif
##ocept
##tr1
##∆
registry
##uine
elongate
##ʃ
2011
ace
residue
prosthesis
zf
##mac
bps
99
##aco
##zation
updating
cooperate
utilization
vasodilator
cnn
presented
swedish
pert
els
thrombus
##oblast
oxford
proteome
multicellular
embod
conducting
radial
p2x7
53
##62
restrictions
nodules
noradrenaline
bmdcs
fellowship
stainless
arrowheads
##asion
unpredict
198
##apit
displacement
##arcts
##ington
##ach
lights
·
subl
justice
[UNK]
##italopram
unint
ranks
ipsilateral
##amel
multidrug
amplitudes
mirrored
citi
c7
fxs
counties
transposition
##ocortic
##eastern
##yletic
vowel
##acgg
##allel
##berts
520
重
63
pharm
##ot
d3
grs
possesses
##270
escal
rab5
copd
homocysteine
##odin
##held
retrosp
##ellular
hnscc
ectopically
foll
alb
synthesizing
vas
##amines
scaffolds
h1
impairment
≙
sarcop
irre
expos
eosinophil
resolve
toll
arrhythmias
pacemaker
discussed
bear
维
digested
##itum
淋
##★
membranes
##acc
##elson
dpp
tomography
golden
pectin
mek
nest
##原
##110
eru
submission
appropr
occup
triphosphate
catenin
tax
5a
cytoplasm
73
stakeholder
##soft
swarm
guided
warming
##odic
finds
##ros
synthesize
available
deterg
##wa
masc
invaded
##mann
dams
break
##b5
##⋆
lund
pediat
microinj
ricketts
noncoding
atmospheric
volunteer
comprehensively
attained
sput
offered
##uba
malignancies
##hv
setting
euclidean
##od1
##ilson
lda
hom
##obiliary
##orporeal
museum
ultr
##服
acidification
kyn
intrav
tox
unspec
##acia
antihypert
##aft
doubled
pkd1
##actable
##ars
##calc
tanz
traveled
n6
confidence
foxo1
accumulated
purch
oesophageal
pati
146
engage
metabolomics
corrected
cpb
##癌
##architect
##fact
differenti
pombe
goblet
##otypical
232
dictionary
thereof
##＝
swim
201
parietal
explor
nascent
synergistically
slope
furn
explains
##ativity
##多
degradation
ctt
crosslinked
ahr
##ometry
dual
flavin
got
zip
neuroprotective
69
glomer
unple
intr
negl
##ners
451
condition
determining
##方
capable
shc
##↑
plasticity
##ny
aggregation
##eld
typhim
pgf
preclinical
multimodal
##⩾
connected
intima
specimen
##ancers
inducing
##eping
##idal
condensation
mesoderm
tablets
injectable
sister
∣
compound
associated_with
##◇
##pos
quantities
##aids
shortly
##路
stump
parkinson
cyp2e1
##ries
microscopically
##ices
rigid
adducts
inappropr
hotspots
rosen
ground
neuroprotection
##quine
nanod
并
regime
appetite
catecholamines
salt
autophagosomes
reuptake
##aker
hmg
cochrane
marker
rising
cbm
##akin
506
1200
##ffs
##agon
amox
v0
p38
indices
##atinib
zeal
##ance
analytic
##共
questions
##etics
aap
vc
degrades
demonstrates
dup
persist
ribos
##portun
ethidium
law
ventrolateral
融
diminish
distractor
protects
zon
canada
##ints
within
tradition
##uctal
involves
plethora
##phenol
##ateg
linguistic
adenosyl
copyright
laryng
usual
sse
dependence
somehow
##60
polyn
ht
row
explos
polic
brain
surround
invasion
##法
wings
ham
##ateral
conceived
nigeria
apopt
##urc
##oid
user
sprague
##urv
manif
barcode
differentiated
or
likel
epine
trimeric
dmr
chel
##gus
telem
nh4
##ranial
immunodef
##180
vin
##erving
deficient
senti
arbitrarily
fistula
acceptors
up
ff
description
##⇑
cued
gene
platin
##eria
fab
kal
##odegrad
##furan
pneumoniae
detect
humanized
##b1
##asting
metall
##进
##仍
jejuni
18s
jun
##iteal
##estim
verapamil
golgi
anticonvuls
非
eleph
##ogaster
transfer
directive
##orel
laparoscopic
##agi
coerc
telev
construed
r6
accur
siem
emulsions
hydrophilic
withdrawn
ƙ
pks
hands
##ovascular
##₹
gp120
inputs
awak
hhs
##anta
kain
##oge
building
##±5
doctors
##o
##orubicin
##arib
neon
worm
ophthalm
##☑
##asal
ccr2
rodents
caloric
feat
cdk1
genera
fentanyl
carbapenem
##ensive
phyt
treadmill
intert
devi
credit
##ate
unres
##nac
shifting
##4a
##ey
wats
autologous
reversible
n4
aj
autoantibodies
phylogen
self
crust
astrocytes
##120
##ucher
thai
331
1971
glun
sunlight
subsp
traps
##var
unrec
relational
手
corrosion
##1000
##utely
近
campbell
##405
forming
muscarinic
anti
║
intronic
optimized
french
normoxic
eut
etiologies
monitors
v2
wortmannin
beam
130
##√
evs
epiflu
著
ecd
utility
##ords
##ust
once
causative
ddr
##tified
147
disrupts
organ
interdisciplinary
willing
phalloidin
along
亡
##iazole
photosynthetic
术
##ica
##ients
ratios
terminated
h2
html
elucidating
peru
##ivan
leica
##plied
vpa
##imed
iv
centrosomes
seaf
##cept
diode
312
becoming
##angle
demonstr
transformants
expansions
maturity
retrieval
polypeptide
49
exams
336
nbs
amr
uridine
sides
ttx
80
assumed
balb
surpr
additi
##acycline
##1b1
hypers
cpa
##role
interfacial
triangular
auto
incubations
provin
##olate
get
poorly
tol
•
accordance
colony
pfizer
coculture
##ometric
8
thy1
##失
difficulties
accessible
prolong
adduct
antagonized
step
wall
genotyped
neurocognitive
ascertainment
implicated
post
typical
dynamin
##analysis
views
pleth
依
facilities
judged
##idus
int
importance
histologic
menopausal
evaluations
299
gef
##led
snake
505
mmr
articulation
exceeding
math
phosphor
delir
构
##emide
cohorts
wearing
pons
##l3
2012
acquisitions
magnetization
hosts
b5
20s
histology
hindrance
putamen
##结
##vic
exhibits
hospitalizations
##caemic
affect
##iasis
##lys
abcg2
biting
l5
##ple
##urus
entrain
hypotension
fate
##holm
##aer
freund
progressive
##process
metastases
##oph
##ician
homogenate
c10
consequences
limits
hyperglycemia
consider
interes
loos
##ties
fatigue
dpi
primary
cytolytic
hospitalization
accr
prin
##orable
clon
osmotic
yam
calcineurin
##olid
##plasm
nab
mov
313
abo
strengths
castration
##osum
battery
##χ
adt
trpv
confident
subunit
conditions
##relin
openness
luteal
##olol
k5
bmc
coher
investments
nonin
graduates
##haw
product
stage
hcl
2012a
##aid
##uminescent
visc
ath
hyaluronic
##isher
##treatment
##omas
##emat
##ened
bush
##plinary
resveratrol
domestic
##gen
gent
ultimately
##ograph
implanted
sdm
morphological
remind
centers
sanger
##uw
##233
need
cluster
##as9
finally
##orf
register
cont
fecund
cereb
paraform
members
级
dream
ethyl
replicon
3i
##ophosphate
enrolled
wgs
paulo
agilent
##c6
subject
annealed
lysis
##otom
frequ
eqs
approved
ebioscience
apolip
determined
##bar
thermodynamic
detachment
eeg
incident
##ycl
##js
balance
##itaxel
ua
315
##aments
distal
superv
anterogr
evening
competitor
heal
srnas
span
neg
arch
consumers
olympus
experimenter
crystallographic
reli
avoidance
eif4
⊺
##atine
returns
nqo1
measurable
##vir
mof
##ition
hypot
modalities
##q
##iness
##重
##pread
il6
frameshift
hyperlipidemia
sars
##ty
reorganization
entropy
##apsing
##⌢
fusions
##acco
autistic
ip3
witnessed
constant
##inone
##达
parv
starting
##ire
regenerative
hamilton
anabolic
▵
decorated
invariably
impairments
sln
plga
pneumococcal
coc
impacted
gir
constric
ptb
experiment
descriptive
##izer
additionally
mpi
innate
tca
symptoms
grows
unbalanced
lvh
flor
below
work
paternal
##得
thyl
consisted
acqu
##emic
cycloheximide
##往
trust
predators
sept
waveguide
exertion
intestines
germ
360
outl
##uri
dro
dwell
##ize
neigh
sphincter
##ated
##ledge
ivig
pgl3
##qu
psychomotor
##uk
##alu
northeast
transection
difficult
coe
₋
ts
avoids
##urred
microdom
entering
227
assurance
tym
volatiles
##146
conservative
shim
##odomain
noe
e
stalk
mra
65°c
banks
incarceration
ignore
nonster
cpu
延
gate
elevate
smo
terat
speck
pione
391
coex
microfluidic
clamp
mmhg
spur
𝟙
23
agency
using
##apical
烟
##474
corne
279
occlusion
alloy
rhythm
wilcoxon
conson
cheap
microspheres
colour
##6a
##aptic
collecting
efficiently
speculated
humor
wood
mitogen
##rical
desmin
##take
lad
##aches
stir
neurons
speech
isolates
##fer
spectrophot
##ising
advantages
bench
recall
acd
amide
descrip
restenosis
##hydr
beach
vf
##proton
ﬀ
households
##tle
expendit
wald
quadratic
collectively
consult
除
extin
arbitrary
##lings
499
complexed
##gow
它
functions
pseud
⊨
gith
##620
wi
blood
##ected
pas
micron
myriad
flame
possibility
049
##ener
tanzania
interferes
kum
exactly
ou
##arse
fz
regimens
photosynth
10
arabia
inv
hydroper
judge
ssr
##¢
fe
subchondral
ncs
excised
##sr
splicing
positivity
##any
nos
noticeably
spectrum
##plicit
⊗
freshwater
aside
answ
trav
cing
mw
bootstrapping
ф
herds
rescues
todd
h3k27ac
manipulation
perez
contin
495
##cls
r3
benjamini
##改
antigenic
equal
suppression
solution
##osclerosis
##内
{
peaked
##188
broad
gac
under
hypersensitive
built
800
explan
##ozin
any
eq
tbp
micrornas
gestures
##olipids
##ttt
##tory
extracted
hhv
substrate
sports
trigem
##duce
suction
retain
##mers
bse
ore
¤
nic
opl
acinet
definitions
mediastin
fid
##lass
homozygous
♦
cover
crpc
meld
##ine
1987
gastr
reversibility
summarizing
179
sevo
ariz
##血
##广
directly
muc1
ecs
cages
indomethacin
rescue
fa
trpv1
wrong
rio
monovalent
##177
environmental
mothers
##atic
stories
colloid
##apillary
到
prevention
stis
hiv
simian
delineated
virgin
##otr
wished
ophthalmic
occur
symbols
ferritin
ns3
fcr
while
convert
approx
##ethylene
cilia
hampered
kinesin
cleft
gle
##gan
rotational
⇒
calculations
##209
autoan
lin28
##elae
▿
##⑦
##osecond
minerals
nicotinic
masking
##arial
otherwise
##itine
irf
##olactone
calm
immunofluorescent
dus
unsu
degen
score
##des
rfa
##uximab
hyperalgesia
ventil
f0
laemmli
threonine
stream
##g1
187
endeav
nedd4
##ences
pus
##ocl
hydrochlor
discourse
acceptable
f3
β3
bees
beginning
univariate
rainbow
##mb
micrographs
pars
saccade
##otrophs
##159
##展
ant
##vs
##eman
neuroanat
医
curs
sequences
partitioned
attenu
alopecia
coated
50
044
##igation
autophag
grain
##oprotein
1f
∆
elution
##ody
depletion
##ways
framework
##口
untreated
##acylglycerol
##side
extubation
transparent
sensitization
cx3
##⇝
venom
ped
lg
##utum
obvious
confid
perm
behind
ozone
griff
##ens
antral
periphery
ester
cause
prepared
campylobacter
##对
uncle
lei
1986
##pr2
ovarian
sending
h3k36
##ado
farnes
smirnov
demographics
fill
formulas
been
syngeneic
##ℒ
474
endocytosis
workshop
ante
till
translocates
hang
anx
glycan
rna
##gf
erbb2
pacap
insu
factor
equation
individuals
carried
##inearity
containing
geographically
relations
hal
conclusions
seasonal
violence
##258
d2r
reference
##→
gord
angiot
multivariable
##ially
disass
273
elec
swabs
fv
tracking
categor
embol
##eterm
examined
challenging
tobacco
exem
malform
dissimilarity
rhamn
nond
exciting
##vec
exhib
##ymethyl
huh
instar
altman
10−3
extended
##aro
##dle
##⁻
ca2
angiography
##opathies
accelerating
chromium
##enge
descriptions
broiler
tetracycline
pock
issues
path
balf
##avail
offset
users
unkn
neurobe
⋆
distinguishable
migrate
wrist
hysteresis
##ney
##afen
而
##tral
encour
m1
swiss
galnac
cholecystectomy
##burgh
stock
##p3
##更
##obulin
implicate
##ble
3p
postpr
nhanes
peter
eco
warfarin
289
##敏
previous
stereotactic
mds
##nels
##adm
##ivir
150
medulla
₹
究
vz
seventh
multiple
cah
flour
起
cav1
##irectional
sec
bupivacaine
##ellosis
##amid
doub
##rotein
psychopathology
##other
vign
respiration
28
shin
ngal
accelerate
aspir
neurodegen
##ican
responsible
致
s−1
mod
surviving
anonym
cytology
##е
─
jeff
bulge
agre
pulse
cadaveric
genotype
##体
nih
kind
multiply
quoti
letter
mate
cd103
sapiens
cftr
enzymes
failures
flowers
ultrafil
当
toe
mangan
notwithstanding
littermates
hek293t
##低
willebrand
typing
suited
suvmax
peripheral
##5a
##transfer
##yglucose
##atitis
delivers
##ariable
传
wilk
secure
charges
pcsk9
spa
charge
pvdf
dhs
chase
janssen
##胞
bioactive
##aded
notably
suffered
≦
morphogenesis
##ymb
survivors
blasts
ablation
##achi
stap
##aving
probes
indometh
deficits
sj
120
continuing
fwhm
ad5
nadp
chu
slaughter
##pred
##cted
unwinding
##ypt
ric
estrogens
##hyd
1m
bold
##orously
conceptually
##forward
##lic
paralogs
nonh
unins
clc
regressions
imputed
subtilis
palli
diol
student
fibrin
recognize
cleared
infiltrating
productive
##403
##ised
hence
##243
bridges
vascularization
tin
183
idiopathic
chain
discovery
scid
nj
prol
##editing
sacrific
tibial
##read
labile
lvef
depths
favour
##4c
##out
ifns
presenting
##unders
presumed
ppm
##cellulose
women
cambridge
##使
parallels
##ild
past
wort
##iki
##alg
via
##days
boosting
cns
destructive
macs
oleic
hdac2
dendro
5th
resonance
signs
multicenter
iqr
cd40l
##apa
angioplasty
##22
peer
sut
cdr3
ignoring
impuls
restorations
epididym
colonic
sectors
transf
infer
laying
progression
vessels
##ban
posttreatment
lan
s1
##295
е
semic
p20
hopkins
##enin
haem
cone
##ewise
transplant
puls
sib
##ana
intron
dsm
##∧
##aterally
##esters
stereo
fgf
decid
vacuum
prednisone
caries
##quat
incor
magnified
bones
stata
##eng
##lor
epidural
续
##most
##ants
chemotherapeutic
modes
member
practitioners
##干
chances
tmax
ibuprofen
neurofibrillary
021
##p5
engineer
cys
ins
cort
autoradiography
314
luc
clinicopathological
░
circumc
gaze
##由
enterococcus
epa
encapsulated
demethyl
##oresist
maze
te
##oved
⧧
dust
bmd
gtpase
thrombocyt
pha
##arum
cracks
##м
##ozyme
##emia
anastom
formic
##ss
##atch
##ƞ
hoc
⇆
compounds
inf
lute
sport
mendel
##ae
##erv
played
c5
tablet
realize
collar
##afting
低
clos
##orem
40s
psychiatr
chromatography
sa
5
agriculture
cp
imperative
jers
68
◻
micropartic
isotype
lipoproteins
##ropathy
fibrillar
##oresp
ranges
##kl
suboptimal
takara
208
snvs
##uclide
##i
optimism
tis
blocks
arizona
multivariate
aller
pollution
lewis
shaken
1s
gamm
hepatocellular
residues
him
readmission
arthritis
estimator
##oglut
##±3
microvessels
scene
ligases
improper
homeless
brdu
##born
consecutive
≥3
##169
012
fundament
sweat
herbiv
##人
9b
accumulating
shift
sor
vulgar
ne
tumorigenic
##izers
ko
shi
##ych
##ems
vessel
ngs
⊠
367
virtually
dg
osteoar
randomisation
crick
hgs
chapter
disciplines
statis
tms
freezing
rsv
chr
mutational
orexin
lw
bags
screen
specialists
hdacs
269
hypon
tam
316
003
subdivid
pw
##ub
mlv
discoveries
rg
sigmoid
chinese
covariate
consented
manufacture
brush
##vious
##mes
emg
sorted
serotypes
criz
review
##epsin
rpmi
fluores
mm2
placing
precise
ss
reacting
caught
oxal
heart
virulence
cy3
ck2
atropine
granulation
估
androgen
oxidative
##efined
##147
grouping
aggressiveness
efficac
rather
pacem
test
plate
ch2cl2
##定
a2
projecting
heightened
drinkers
harv
##operfusion
deduced
##fusion
microarray
##plc
outweigh
pea
synchronization
##romagnetic
highly
##en
altitude
##anib
impos
landing
menarche
precipitation
calv
supportive
344
shp
acin
location
011
iκbα
征
intrac
globin
corals
discomfort
forty
##olymer
##cler
nanocomposite
ferr
therapeu
invade
wires
##ughters
##249
which
overlapped
cyber
sciences
脑
##全
##402
##iae
##bp
deacetyl
peroxidation
sustained
spending
ⅲ
earlier
##nutr
popc
keratitis
##organic
front
##cr
abi
pests
behaviour
perforated
sclerosis
##ands
penal
contralateral
forth
cues
munc
##⊓
plt
sizes
amorphous
##peridone
endorsed
##游
inserts
avian
2s
templates
##esium
##文
##101
compaction
##ouns
puncture
eigen
revers
splen
dhe
immunoblotting
beng
anapl
##lying
florida
uniform
silico
reca
##ur
dallas
forel
dutp
newsp
zamb
hinder
exception
##≪
makes
resusp
confound
atherosclerotic
##oidosis
explain
##acrylamide
bond
##ode
overload
ventilation
destroy
stomatal
omit
∊
groove
##ostal
##rel
latin
het
lobule
disk
living
sche
cocktail
##最
总
catheters
rim
pao1
##⅓
##pt
book
serious
immune
##3g
##enous
jam
unin
out
electrocardiogram
enos
penicill
cobalt
behavi
lynch
##embrane
survive
birds
127
deoxycholate
hpc
negoti
substit
##ved
temper
thymidine
bip
homeostasis
adenoma
151
krt
034
##astic
##ests
business
##otor
medull
somat
overestim
xn
##cy
metropolitan
comply
presynaptic
##ivariate
smad
##etan
pva
410
axial
smok
bare
switch
pack
pipette
obtain
extraordinary
thaps
reconstr
##fl
buffalo
coordinates
analysed
neph
amf
06
##uder
dh
phthal
concentrated
answered
##ams
##vis
##ondition
streptomyces
stimuli
##fluorescence
frontiers
##sil
boehringer
ars
pufa
solvent
mecp2
know
push
像
pow
neutralizing
programme
family
repolar
immigrants
pfa
intimate
##omavirus
proposed
capsules
decipher
myd
##akers
junction
##uren
gavage
cyanide
pvr
quantified
pearson
spike
bas
uroth
safer
occlusive
timely
##uka
paced
tracts
patellar
aware
quadr
##tonic
glycaemic
med
ǂ
main
meiosis
icr
yield
isomer
clearer
kcn
food
derm
succ
larv
##electro
summarised
sharing
uneven
##relations
predisposition
criteria
facts
mcmc
instruments
characterized
originates
mush
areas
350
cob
hematuria
excluding
sup
##ophilin
clim
pers
##grass
nights
indicated
neb
normalised
hil
wei
annually
synch
##acch
hepg2
1965
saharan
phc
aerial
##assium
##oplasty
energetic
##fish
diction
were
desire
rhabd
##aba
211
##ogl
poll
single
donkey
aspects
rearrangement
itt
vaccination
##iring
exploration
pull
у
应
reproductive
bead
transfected
categories
spind
stations
##way
extractions
acoustic
##ividual
thousands
ppp
pvs
zikv
concepts
##tern
##acetamide
##arium
reliance
tre
dimethyl
tokyo
lamivudine
kong
holistic
effluent
reductase
heidelberg
history
nonm
enab
employee
evidence
##lished
dnase
punch
lca
characterised
ramp
chall
nonsense
##vian
##oz
##ulence
emphasis
constitute
ceftriaxone
simpson
inch
predefined
##mond
subst
c3
##yrene
biotech
hns
porph
mef
cho
photos
##oserine
##arm
embry
abiotic
calbiochem
¡
abbreviated
‎
brach
##tional
interior
evolving
orthodontic
third
imagine
suitable
machine
monomeric
looking
pathologies
vibrio
cart
acsf
superco
successive
##prot
ssi
##viruses
evol
##ectic
torsion
imaged
beta
exosome
##2p
broth
acts
project
##uretics
fcc
##cys
lbw
hypothalamic
5e
pores
austral
pad
influences
##yer
##系
##∮
thing
##ief
##5
agreement
subpopulation
fetus
##entified
##imidine
mus
calculate
pparα
conditional
minip
analys
##alian
immortalized
yeasts
!
accountable
neoformans
dialog
cohort
##uded
argentina
happiness
mother
bacteri
##astatin
trauma
malformation
major
##itud
hps
cruciate
version
mdc
结
hematoma
##oxifen
gloss
sb
naive
merc
transth
##oconjug
##esis
generator
gly
fluorescein
▸
binary
ⓡ
arrestin
调
definitely
hoch
##家
情
##ap1
##ometr
lpr
bdnf
formation
powerful
tpa
##ococc
##z1
##rf
##atil
dilution
##iq
hon
##义
hold
t5
algorithm
##osed
attit
cytogenetic
myoblasts
##uridine
spo2
##pase
extrah
##ologic
##erating
gamet
d2o
motivation
##roph
antipsych
##ipe
demyelinating
leaf
##mm
stayed
rotating
##预
guid
released
##cle
hw
swallowing
erb
disadvant
compares
alternatives
counts
##ilia
##hic
##za
snf
ventilator
sector
gemc
320
omn
formulations
driven
osa
glycerol
ˇ
##protein
sterilization
humeral
lod
conce
ш
antiviral
survivorship
##到
vaccine
mamm
subdom
##ytes
dissipation
hepatocytes
phosphatidylinositol
##cht
##occup
aac
migrated
refugees
##ipher
fire
##3c
##ctg
##portion
californ
##ococcus
notch
colocal
perh
operatively
computed
interferon
fura
delirium
状
dissem
##ℙ
epithelia
oncogenes
already
##ore
##ucid
gm1
##cha
william
bs
substan
homeostatic
##μg
alm
meier
correspondingly
##obox
##olor
##yama
℘
1−
glucocorticoids
disapp
##inity
assets
appendicitis
illustrating
$
excre
jejunum
lob
corresp
quenched
grate
##cale
hum
mechanics
ħ
ducts
∃
magnitude
tw
until
attributable
halo
4b
##uronal
样
7h
##species
mse
meristem
##ael
##409
##adate
phyto
aggravated
##iser
dapi
ellipso
plotted
bilirubin
practition
heard
stents
statin
ubiquitinated
##alo
anticipation
eth
26
summed
##onyl
appra
hemi
pick
##ochondr
ste
analogy
infiltrated
##346
retest
week
##pc
unmet
##ym
interviewe
damaged
ascending
gleason
interviewers
ipv
uniformity
seroconversion
thoracotomy
graphic
##然
ties
pent
##yon
itg
activators
gyrus
salvage
infiltrate
calpain
gonad
##oventricular
##iline
##yphenyl
chromosomes
unpredictable
laboratory
meant
cards
towns
hir
##romatic
dopamine
edu
cautious
535
reductions
desorption
##ording
inferior
multin
monitoring
##avi
approach
radii
tach
middle
##uents
states
##ℕ
pod
##biochem
##eline
twist
finish
20
nasal
##ml
kbr
##状
envelop
##aut
oxytocin
##ardial
##vers
juveniles
##ade
another
ultrac
serotype
atrium
-
##plat
预
inser
##strom
infan
igg
##acid
##‭
≤
overexpression
calcine
suppor
manus
labels
can
##lu
##iotic
orthologous
comparatively
​
mcf10a
sho
catalyzed
perimeter
piscataway
尼
gus
manass
opi
inclusive
connections
connects
③
##pton
processor
lighter
r7
triph
wan
impedance
ide
##ugg
ceftr
msd
carboxylase
mk
taiwan
dtpa
kur
##kinin
iptg
fashion
##acter
sponsor
misclass
##avidin
antidiabetic
##us
##ropin
##oreflex
prelim
uterus
g2
coincide
duc
##hop
abundance
##puts
positron
indexed
erythemat
mirrors
transfect
detail
##bronch
incubated
bac
▬
347
whereas
modifications
##oxazole
##过
subord
foveal
insights
quadruplex
↓
decide
tpp
##ero
oocyte
postsynaptic
pose
##bed
doped
gmp
elder
cyclo
std
interdep
##动
e2f
##polar
##omethyl
fxr
hydroxymethyl
##vin
##draw
periodicity
fms
##括
fluorescently
neuropath
dystrophy
down
retrospectively
corrections
dominate
advertisements
##aline
timing
##引
aag
µmol
sri
cvd
neovascular
##ystals
bariatric
##imer
viruses
##ounting
adsorbed
relatives
gives
underlying
trip
interd
asymmetrical
en
##16
buc
teams
nanomaterials
fewer
mrsa
fresh
mitigated
orbitrap
181
empl
##～
##ille
cutaneous
##103
##ut
lsd
##gm
doctoral
94°c
ethnicity
diagnos
##orescence
tetanus
divergence
##timore
temozolomide
silicon
kbp
proliferator
d
##hood
u937
determine
database
##236
afford
##ania
hdac1
kernels
##elia
hj
##ials
don
##icians
goodness
citizens
possible
transthoracic
stromal
clinically
intravascular
и
n1
ecm
delivery
##rug
##thritis
anderson
327
eng
investigated
fav
aprotinin
telephone
illustration
prick
h3k4me3
cornea
##cetin
predictors
sacral
un
cens
optimum
−7
freedom
reporters
convey
systolic
dft
##ocrit
e6
profiling
traf6
o2
gastroc
stig
profile
##igibility
mediation
posture
attrib
invertebr
unch
##ris
topic
choline
peptide
##ze
dsb
malays
qiagen
##adium
##orption
hab
##missions
glucoside
398
harvard
accommodate
awareness
immobil
diastolic
##bles
relev
##ropyr
berr
taught
enthusi
##图
intravenously
hybridoma
##无
##𝒬
fis
≻
baculovirus
##agliptin
cytokines
##after
comfort
superim
##opus
胞
temperature
bidirectional
reoperation
osse
##floxacin
oven
predis
##osine
nir
slp
##ev
##omy
##292
##esth
osteopor
pf
##oda
spring
polymerization
aberr
denaturation
electrochem
duplicate
promo
wildlife
dhea
gathered
playing
##vinyl
few
zyg
##iration
252
pharmacist
##timulation
extrem
##dk
t002
broadening
unpublished
##erto
immunosuppressive
intrag
ensured
##amen
eosinophilic
##othiaz
##ulinum
divergent
innervated
dx
biosystems
##ulent
ut
inactivating
ov
anten
basolateral
inventory
chemiluminescence
##caemia
insertion
developmentally
##244
conjugated
bmscs
haart
methane
cine
##oper
hindlim
加
regurg
converge
context
competi
##iety
##tingu
ventricular
chick
canine
enter
lesioned
determines
pathologic
meningioma
commensal
eph
interviewing
cassette
strategies
dephosphorylation
##ozoa
thyroxine
##phia
pore
flasks
pharmacology
notif
dsrna
ccr7
##у
species
characteristic
疗
particles
funding
##124
mil
erythematosus
tetrap
##bre
russ
function
##erin
logarith
查
yale
⇌
disposable
nanowire
unt
tbst
##ormal
##ever
3e
>
primed
pdgf
##pressor
497
leukemias
begun
##isions
##max
corticosteroids
functionality
subop
iran
fas
ambient
arsen
##athin
tnf
capillaries
precurs
conting
##⁸
##═
lipid
substitution
crypt
bsi
premenopausal
physicochemical
examinations
diaphragmatic
rgo
pmt
punishment
copyediting
cyclohex
mts
word
brca1
minorities
turnover
##wald
autoin
byst
flex
##₉
marketing
##idad
##ð
natriuretic
##cus
volume
reactions
immunological
##ultural
fumarate
dithiothreitol
proteomics
chemoresist
pds
mechanically
calcitonin
doxyc
miner
rotation
##161
likelihood
ebpα
##apses
##bu
g−1
concrete
importin
cbc
ere
415
##2−
##293
airflow
s14
moves
##otubes
##eta
void
##ⅰ
element
magnification
##△
343
sign
##ream
mpo
arguably
process
cuc
study
neonatal
mtorc2
planning
bax
##ﬀ
##ellow
interviewer
plur
spectrin
##ter
xylose
asl
##bound
##ognitive
##weight
prosocial
androst
cbs
:
thioester
##atin
communities
hay
chondrocyte
429
herbs
addressed
knee
158
attribution
##obl
##amethasone
pbmcs
##ano
amen
hai
##roscope
##in1
##accept
rainfall
proximal
conceptual
##havi
pediatrics
southwest
##维
unrel
dsred
##owski
##co2
reporter
tan
allergy
hydroc
s3
tyros
nr2b
explores
trout
##osa
17a
用
younger
##enol
atf
oesophag
leader
splic
hsp27
throughout
##yll
neurotransmit
ercp
notes
procedural
##le
##273
microflu
vte
dere
longe
riva
milk
nomenclature
breast
cells
smartphone
micromol
subnet
l1
##go
callus
##ropic
nf
years
##iqu
cups
judg
innovative
##don
norm
tung
hd
##que
occupation
cd1
rpa
##vc
##acl2
##esearch
##ober
newly
1β
##aldehyde
tinn
##gin
restoring
neoin
build
##♀
γ2
sodium
overexpress
academ
lentiviral
noncom
37°c
corners
fundamental
chs
pharmacy
##odia
synthase
307
clinic
404
expon
##ectories
deviant
adj
##pl
roth
##adder
pericardial
60°
约
##neal
partnership
platforms
##tricted
pend
contrac
continually
δr
recombin
citric
deterministic
##oding
∼20
subsequent
immunoprecipitated
working
resusc
##uary
cyclins
ax
shand
##ously
ur
abstr
##氨
acne
basically
vitro
kf
imposs
sphere
位
##osp
sant
dist
##ispers
maintained
pcm
##thern
##osition
victor
immunology
allel
degrading
alters
fibrinogen
olymp
mu
imm
##hpo4
##述
cb2
metallic
##alemia
agglomer
##ocar
store
ccs
mining
369
mediterrane
minimizing
naphth
paste
fort
aiming
lyase
ℜ
##ancerous
extent
generated
ᅟ
fatal
germline
hedgehog
##响
##igene
hier
bystander
behavioural
##ed
thrombotic
transvers
transwell
##anol
pilot
npc1
scattered
thoracic
e2f1
rs
larvae
nsf
kil
##ihood
##xc
pole
noting
##tive
mood
##cyt
##937
mimicking
heat
technologies
##sa
road
stereot
besides
##aprote
labeling
heating
multilevel
##rected
times
phage
raf
image
artifacts
addic
cancers
tyl
mammals
standing
grow
citrull
##ente
##ol
##flav
instantaneous
probabilistic
saccharomyces
##208
##ql
height
354
009
##inea
##ps
verify
##hs
lv
##asic
tp53
bott
leishmaniasis
enrolment
exosomes
tune
geometrical
uve
redistribution
postural
intended
myd88
##phase
∈
##价
aforementioned
##ou
boys
abdominal
autophagic
coff
##icity
##ones
##23
_NAF_O
zha
crucial
cenp
cdkn
voice
latit
alc
∗
##ivirus
dummy
##allow
refers
photosensiti
pads
rtk
maneuver
formaldehyde
thicknesses
bilayer
##时
terres
1967
cpg
whole
##7
cgi
284
##ote
unreliable
cutting
##∀
pge
##cl1
mets
##oprop
electrode
kappa
sensitivity
fruct
resembling
##auer
##itoneum
ppar
monoclonal
##ensis
plasma
manifested
coum
jejun
##ostasis
##处
psychos
abolished
akt
上
##off
adp
##ulated
smoked
medial
ovari
ro
dyslipidemia
cochle
980
##osel
sq
pages
pisc
coloured
##406
##km
##uated
odds
oce
##ℑ
bradford
grounds
original
asbestos
preval
synthetic
euk
phenylindole
##cb
opposite
##ocele
##∇
##oprotection
oldest
##fi
oligodend
swallow
lyophilized
drag
contains
allowed
mastectomy
khz
citation
meditation
etanercept
sufficient
##uric
settings
myb
##ods
trend
##tinal
emphys
##haem
##artite
stability
considerations
##8
##plant
##ager
lobes
therapeutic
fic
europ
lifespan
alternating
##ipenem
absorpti
pd98059
targeting
##bean
c57
datab
lubric
absorb
perc
accumulates
hgf
##¥
##⋂
积
admin
unil
nrg1
climate
cardio
phosphorylation
xc
##cd
conclude
tubular
tumef
coulter
u251
over
##im
rest
tendencies
unexpected
title
these
synchro
distrib
##odiazep
heuristic
hindlimb
tuberculosis
river
##139
proportions
##290
provid
caenorhabditis
##une
profiles
72°c
##很
fenes
fractal
##illes
##uced
cardior
monophyletic
modifier
##cycl
administrated
feedback
外
##omere
centrosome
##ambigu
invariant
preeclam
quantitation
adopt
superfamily
##a1c
fracture
##oring
nervosa
open
δt
hbsag
lfa
preparing
##eliness
schwann
monoc
first
pauc
##omedial
remov
rhesus
tank
susceptib
bifunctional
##ingen
infected
calre
##aran
uncovered
contours
goat
egg
贝
##取
cervical
188
407
bus
schema
实
isolating
##ubation
versatile
##place
then
wnv
unem
communic
##uguese
##600
colomb
crystallization
weak
dithiothre
exceptional
sam
amine
resil
##osh
opcs
##ches
reve
sprou
diffus
##gn
71
##可
philadelphia
automatic
clades
𝜃
adventi
ɔ
##asa
eif4e
##▽
debridement
217
vor
ors
##tp
scd
##amp
##acrylate
##ardium
##iat
clothing
##veness
gu
##mr
hypertension
absorbing
remarkable
res
damping
##ximab
scale
qol
msc
thermofisher
##ɔ
vel
discom
argon
dryness
egf
cryopres
nesting
##idino
peptone
nh4cl
proceed
integrated
##ionine
cumulative
323
05
##oneg
sox2
treat
##ldl
cd38
cd40
##ffer
oligodendrogl
pluripotency
frequency
propagating
bisulfite
##ture
simplified
ocd
##ced
##agul
intimal
fun
##agl
thr
incomp
agar
chips
regr
imper
lamp
##atech
tour
radiol
##opropyl
##tin
##75
aeros
insectic
##arms
iba
hygi
dichotom
##≈
frameworks
gave
##idation
transient
matured
antibodies
##zee
##ibilities
penic
##athic
nicotinamide
schizophrenia
i1
scler
precipit
‘
gateway
251
erroneous
antiparallel
unplanned
##mic
mx
；
22
assigning
##onephritis
##acetamol
radiation
##uez
mthfr
services
##orphin
##econds
rated
admix
chains
##adone
laterally
goss
diab
according
support
nop
接
##6
horser
vary
letters
dimerization
order
flux
subspecies
combination
replications
##地
bru
priming
##isch
alv
purifying
3000
##x6
mirror
morphometric
confocal
##asts
2d
spiked
vess
plaques
##38
pitts
##ope
oryz
phorbol
##heal
pharmacotherapy
deuterium
lifest
##α2
p63
vietnam
##repres
incurred
bending
collapse
igm
catastrophic
crs
firefly
observed
responsiveness
industry
##enth
##omer
##恶
88
酶
adhering
bug
±1
nucleolus
##lets
als
##okines
fcγri
healing
outperform
biochemically
##ologies
养
constitutively
readmissions
##istin
interpretations
inositol
##ectivity
##cnts
disclosed
granules
clar
encourage
193
sil
##plications
tme
##eptide
laevis
antibacterial
pharmaceuticals
p4
##tribution
agonist
personal
##atib
hpt
executive
##∓
dia
##opharm
zhou
appropriately
amers
po2
uniprot
##izumab
icus
##isks
hydrocarb
##answered
ideas
##iatal
##orbol
deployed
guardi
infectivity
##enum
non
lacked
conjugation
quant
aeruginosa
participant
##opa
tors
##andibular
wille
##case
transactiv
arrive
template
harbour
##°c
possess
micromolar
ammonium
##emble
hapl
cachexia
这
##sk
applicability
yp
comorb
、
osteotomy
follicles
##relation
##264
择
ghz
forensic
##brevi
housekeeping
saxs
bomb
##uz
ptx
doing
lupus
##之
##tring
pretreated
homologue
##at1
spect
cere
antioxidative
sleep
majority
room
##oin
glycol
fatality
ear
液
pour
precursors
hot
repub
checks
ameliorate
##amers
mi
lgr
unders
proteolytic
##500
fasl
##mission
workplace
kidney
cytological
##istan
cur
pcv
august
##arabine
apro
≪
##atectomy
tsg
classify
raises
hemisph
##oplasm
##а
hinge
11c
initiated
##anus
urgent
##aluable
vial
due
governed
lc3
subch
steroid
occupying
18
biom
pathways
zeb1
progress
ratio
##cttc
##onates
##fficient
hus
##urin
diss
arg
stn
cetuximab
mosqu
##graphy
##entre
assembling
233
learned
compiled
##afted
##aminergic
##ural
myelinated
2013
2008a
glp
igf2
##iatr
aneu
##iba
impl
##uminal
bioluminescence
apparatus
minor
surv
inbreeding
##my
##bit
genital
endors
tailoring
##openia
injecting
##nik
propionate
##oylation
fgfr2
##ℳ
##k1
[O]
s1b
validating
##orial
pyram
conflicts
interspecific
singleton
##eleton
longevity
stays
cobal
##oxylin
decrease
egfp
nitros
electrolytes
follicle
##出
rhythmic
##rich
ictal
##等
linkages
##ulations
underestim
polyd
##aconazole
##β3
requested
s1a
hcps
mre
mitig
similarly
■
］
##ature
cons
necessary
proteinase
restraints
biocompatible
##df
moder
ld50
##ocap
##ocular
move
campus
cadherin
ipscs
possibilities
uninfected
circumvent
assessment
##opharmac
##her
rabbit
helping
complement
amplicons
##entioned
##uneus
interviewees
腺
ilk
friendly
##bv
##aac
配
##vem
##orient
venn
macron
barrier
netrin
##∎
swi
##omonas
##参
mentioning
sclc
##tices
##oplastic
vi
noise
##ults
dihydro
wheat
dlbcl
complained
male
srs
corro
reproduce
##yk
bifurcation
techn
★
ty
pvn
##acon
numbered
##avirus
rbc
voxel
rnai
eti
clustal
shaded
orific
nf1
spontaneously
cats
shigella
##trex
received
recommendations
h1299
glacial
berg
precipitate
exerted
finland
shot
disclosure
experim
##ofovir
swing
glucosamine
##g
dan
job
##ology
##ographical
lact
plasminogen
retrieve
hill
##atidyl
nlrp3
stunting
parenchyma
eur
oe
hdac
rit
400
retardation
ar
metabolizing
##试
canadian
##ecture
aβ1
nutr
irrelevant
向
perpendicular
explant
h3k4
coma
zebr
synthesis
mrc
jac
##eted
##tructure
undertaken
eosinophilia
biotrans
fak
*
##f2
nuclei
adjus
neuroim
##rier
cardiomyocyte
##tively
deacet
serv
intranasal
lyophil
anode
dystonia
##ig
o3
##obe
##arinic
provoked
strep
##atac
stable
mature
bmi
##acetic
diaz
##ame
rating
health
customers
rays
neurovascular
discuss
##articular
##ong
##b3
admissions
contractility
adjunct
##icular
corner
cn
facial
depic
own
preceding
‑
##erule
¿
##br3
verb
rolling
##q2
prognostic
##osper
gnrh
united
##yel
cholinergic
hog
adipose
u0126
parox
maximally
osteogenic
asparagine
smoke
s13
##ing
puma
##征
##lete
##ocell
院
026
probabilities
xp
t2dm
005
erps
closer
p50
cyp
contributing
typesetting
lax
##fficiently
##tributed
immersed
##icip
##rosis
substituents
mats
##atgg
asterisk
brachial
ankle
internet
packaging
mononuclear
fcγ
##93
acetate
cadmium
tailored
adapt
nct00
icp
##344
铂
commercial
##oste
funnel
##oxif
explanations
gtr
抑
elaborate
dich
cohes
cloth
shp2
ultim
5s
terminator
learning
temperatures
autophagosome
90°
reactivation
##oxon
progen
inotropic
##atz
##medi
##⇔
traces
eagle
jaund
⁢
##accc
atpase
histological
october
##atically
##oides
matlab
##otroph
butyl
##lock
biphenyl
lmw
likert
adults
⊢
bursts
histopath
undoubtedly
antinocic
25th
xenob
unsupervised
ffa
wanted
constructing
ilc2
tha
##apy
incon
skills
extensions
inhibits
comparator
##th
cand
actively
herbic
mlr
optically
synonymous
gos
##ophosphamide
ova
protrusion
diaph
neck
−1
##oderm
torque
mn
##oscopy
folic
masson
leave
baby
martinez
rct
spine
##ocyt
momentum
distinguish
logis
chemokines
imt
阻
##早
ma
##609
droplets
如
traffic
gar
popularity
##aki
pse
das
pb1
集
##gc
slice
ctg
123
stocks
atmosph
weighed
multiplying
##reotide
radical
##fas
wides
##ritis
beckman
moi
galectin
deletion
h2o2
complementation
4d
maneu
catechol
##pot
saline
grand
equatorial
etching
multifunctional
##ess
ker
##ocial
syntactic
##案
kolmog
##embry
44
mam
syring
schw
##uy
deformities
fmd
export
anastomotic
##ucleotide
##atp
reticul
15
##‏
meanwhile
##int
##支
sensitizing
motifs
containers
allocation
##yrib
circuits
##per
half
##397
his
##etus
gender
cd11b
purity
disad
clinicaltrials
##eces
monolayer
50°c
annotations
evid
hypertriglycer
fossa
diuretics
creates
##wh
rip
rrt
uncoupling
download
esophag
##iosity
cisplatin
hercules
linkers
memorial
##eties
elim
axillary
##gs
lymphoid
##ped
quest
##so
tetr
mig
modified
adaptations
##119
concomitant
s1p
monkeys
chann
behaviors
galactosidase
darkness
lifting
cytoprotective
localities
enolase
stoichiometric
asterisks
##tina
##ind
recurring
##orov
##灶
mucosal
mbs
sir
##acil
21
##bos
b220
endorsement
respons
pa
stem
pvp
agr
ig
pka
replacement
hexane
catalog
electroencephal
categorization
lett
sphingosine
poster
chelator
perfor
lifes
pale
intracellular
##immun
##erson
##idene
minnes
leupeptin
concaten
interl
phasic
hta
##ionate
analyte
cci
uncorrected
6c
mostly
solutions
soluble
₈
hypoxic
d6
uk
persisting
enrollment
essential
##issions
dispensable
ranged
##∕
balancing
ka
kegg
##р
spiritual
arts
antiserum
##oblastomas
##itt
confounded
attenuate
mercapto
inertial
malfunction
express
modality
hong
##patient
bed
tlr7
dramatic
##ulic
outd
lcmv
mainly
##ocys
viscous
opac
lots
pyl
##asty
thermost
bnp
##bert
two
organizational
published
pbmc
nash
##yal
厄
stenosis
lab
infinite
##oproliferative
coexist
recycling
calibrated
phospholipid
terminal
δn
rug
specifications
convenient
##oka
unrespons
photoreceptor
correlates
sws
usp
sds
analogs
packages
acetylated
191
##imeter
##ies
lign
##itivity
−70
informative
egcg
caes
##co3
seas
issue
1beta
continuous
search
however
michigan
cd62l
##eme
aberrantly
cnvs
microgram
esm
dulbecco
ws
pyrophosphate
chickens
ci
vaso
pat
scientists
british
bile
obt
antibody
dorsal
##rou
trache
cim
mys
7
mscs
conditioning
##arges
##arom
claimed
outbreak
##leuk
##uent
##anat
processing
cultivation
shark
测
##10
arguments
nocic
mr
because
##igand
##urys
dose
deprivation
##×
involving
bh3
track
ectopic
##opoiesis
piece
##unctive
##entral
uf
translational
sig
depot
##ents
kcat
addiction
ox
域
segregation
pitfall
montreal
curative
−4
photomicro
selenium
rhinitis
supplemented
centrifugal
reacts
termed
equality
fibr
tac
##−3
comes
´
mkk
##oxidation
born
secretion
render
colored
wake
##ovic
##kda
trab
drosophila
osteoporosis
∼0
flash
behavior
bsa
impacts
therapeutics
microarr
pxr
signatures
≃
examiner
weber
376
comprise
aren
department
motions
mess
lipids
nitrate
疫
rad51
scr
plastic
##vef
prone
##top
37
questionna
cm−2
registration
##ʌ
晚
colonoscopy
cep
photons
免
rejection
ctx
##old
taqman
consistently
subth
phenotyp
##ohist
##plate
362
509
elsew
persistence
ϖ
nutrient
lud
drinks
oxy
immunoglobulin
cannabis
cecal
##care
hypotonic
annealing
cirrh
##iri
excurs
mut
syll
cass
exome
skewed
navig
##ggt
##omplex
##tes
tubulin
waking
p14
¦
ni
tok
presentation
elab
moore
##of
prefer
##artan
##ogenicity
prospect
ine
ncrnas
##bear
pepsin
exagger
##sal
chap
##nps
##ometers
professionals
##veolar
co-occurs_with
commun
humid
clostridium
##olymph
##4
##tinib
##term
prime
stimulated
pun
##incial
##片
glycop
reticulum
w1
camp
parat
双
categorize
bisphosph
recommend
questioned
strengthen
##su
##00
##elli
##arth
par
##orectal
endocannab
?
school
##ka
##olones
tcc
cnc
nonparametric
denervation
expense
soaked
##iab
neocortical
##rogens
##珠
mutagenic
tachycardia
overt
##otomy
graphical
saf
adam
##pose
##olia
pocket
024
##ographs
##itin
diversity
spc
restrained
lambs
suspensions
kh2po4
manually
stain
##τ
parameter
##良
dissociate
##ipr
ow
机
cyclization
##asaki
sociodem
exocytosis
being
supernatant
exons
oxygenation
spacing
ner
ash
serous
81
echo
diagnosed
angles
develop
pharmacological
mandibular
133
completed
detached
ebna
entrapment
geor
agrobacterium
epileptic
inclined
atoms
##otrophic
falciparum
pwv
tgfβ
##突
≥0
⟶
motiv
##ario
spliced
173
##203
kinetochores
gyn
enormous
lik
threshold
intoler
pi
##iling
util
mesh
postc
αs
fle
alterations
cerevis
park
mechanism
sumoylation
depends
spanish
arrival
##pson
sma
往
hads
pou
dise
##vie
mlst
大
##ogenetic
##enne
reminders
resemble
correlation
##onin
fmri
training
bet
##ograms
based
##azen
larger
gbm
anhydr
counterst
lymphaden
sludge
##gg
oncologic
##ocycline
galactose
reconstructive
##耐
ido
inner
##entic
homolog
harboring
leishman
huvec
eluted
rates
457
reed
fates
hypertrophic
fronto
fisheries
##致
beating
##nf
ndr
capill
terminals
clarified
glutam
ly294002
reserves
homogenization
rosigl
hunting
hygromycin
corrobor
surrounding
mutans
##ping
dilated
expectancies
cd44
hne
icv
504
##atergic
dysph
##uous
eventual
##ity
sweet
察
##mh
inserting
eu
460
##au
angiogenic
##ulus
neuropathy
##amilies
tetrazolium
znf
symptomatic
ultrastructural
moz
escherichia
np
cranio
spleens
influ
340
develops
ppb
79
α5
artemis
##orbed
observation
initio
differing
##⁢
##kk
numerically
arm
ucs
alkali
lens
norepinephrine
##j1
##ap2
readout
◆
interventions
resembled
pigs
deemed
thymus
involved
visualize
nh
##ante
uncharacter
baumannii
demarc
##rig
ancillary
yb
provincial
##brids
obsc
ischemia
obst
##例
followup
cm2
string
discover
参
mono
hmm
unstimulated
slot
trimming
penetr
##bladder
##ilis
collaborators
liposome
consul
breastfeed
osteoclasts
##atia
allerg
antipsychotic
expanding
amongst
dermatology
neurones
hts
antiproliferative
##aceu
##izyg
spaced
##т
##gct
cortex
##bel
oxa
parallel
##angement
seen
meal
subclasses
well
##mut
prednisolone
tensile
attenuating
##dd
##odes
353
ultraf
epsilon
468
parents
efficacy
competent
pharmacies
period
##echn
immunoprecipit
##oses
shrinkage
needing
##大
perpetr
bb
cdk
ptp
##matic
##phosphate
combines
insp
inactiv
frustr
akap
complexities
##achus
dent
terminus
fvc
qaly
specific
coded
chrom
##治
utilized
clinical
hypoxia
precipitated
gramm
viral
nucleotide
##ocysts
psychol
##hole
lambda
mdsc
bm
##ably
ether
served
##flu
hematoxylin
seem
exported
beside
moist
sometimes
conj
microorganism
86
beyo
12
incompatible
dichlor
aldehydes
crest
##board
hypoplasia
scaffolding
##trum
def
alginate
##being
dinucleotide
gw
pc12
depolarization
hydroxylase
xrd
individually
##erica
estrogenic
##ha
suffering
primate
##inostat
fmt
brass
polycystic
诱
##oxacin
td
##cent
##¯
motivate
discer
associ
foot
svr
randomized
hippocampal
synthesized
##ylyl
hybrid
tse
retrograde
lck
##olesterol
microbes
chk2
glass
mcp
intent
−0
buffer
##ph
fibrils
reflexes
cfs
##ving
epiph
antine
astroc
vacuol
##ℤ
nihr
styles
socio
##▾
iκb
##itably
trivial
ı
characterizing
tor
esbl
generalised
##ost
kn
##te
informed
histories
dp
αi
measurements
2017
certification
##lr
##节
ecosystems
restores
˝
suffer
circuit
noteworthy
unresolved
aboriginal
ot
##ϖ
nephropathy
compositional
composed
elective
dosimetry
##plex
remission
jiang
colistin
abnormalities
##ogly
##aq
##ow
discrimination
mcd
precaution
434
229
##近
##own
unintended
##eletal
##bp2
ban
submerged
##gene
##arc
revascularization
citrus
manual
vitamin
ionizing
##cam
3×
psycho
zheng
dtc
municip
multifactor
colors
implying
##ayer
rare
cesarean
##nem
差
prdm
polygenic
##006
##anti
##ling
被
δ
##unction
dnmt1
utrs
schedules
combined
cld
##anum
vascularized
##gressive
##ef
##eting
immunoglobulins
electroly
##acerb
rb1
chromatid
cl−
##nes
##4p
5°c
##uate
intricate
moth
recordings
##inical
dend
##ventricular
rig
deregulated
stop
intensity
ns5a
##itted
mmc
initiate
discipl
stat
rapidly
significantly
typ
b
synaptophysin
##apt
klotho
allergen
##57
beliefs
klebsiella
##oencephal
dopa
sephadex
contrad
wireless
ʹ
appropriate
gynecological
ﬁ
metabolites
550
sod2
facilitate
hol
paul
##ofer
running
oscillatory
epoxide
abd
coel
angina
gfap
carcass
encod
##pha
introduced
sce
cannabinoid
zns
chan
##mark
infrequ
shortage
heterozygotes
noxious
耐
miniature
##asia
capt
nucle
mpfc
opiate
reoper
radio
mail
##orders
melanoma
costa
facets
nanostructures
##xts
##间
disintegr
valves
overrepresented
inhib
##gtgg
inside
##ulf
rapid
elementary
stride
醇
distributions
ℰ
duodenal
##ories
##₋
roche
disadvantage
iiia
sprouting
bodipy
##vel
##rospor
malond
primes
tricuspid
anisotropic
turner
hydrolases
sbp
prematurely
lesions
fibre
powered
distribution
nfκb
micrograph
##l
nav
oxides
##east
探
latest
##fall
origins
losartan
gast
din
##bow
scaling
##arean
6e
##form
scanned
鼠
##otri
ppv
corneal
prun
suggesting
┴
mutation
##graph
ecori
cervix
conven
##oci
recognizing
platform
rex
2a
governance
rats
adding
##verbal
fuj
##er
photoble
##ula
swed
unexp
digoxin
saliva
studies
defl
biomechanical
##ocaine
₉
systemic
sar
decision
virtual
jud
positioned
devised
kam
patterned
155
filled
dataset
dko
oxldl
##30
eo
##ammonium
dem
##hn
managing
##opause
dexamethasone
princi
##roc
resident
confidential
igr
goes
##atechin
##k5
reduct
##inating
view
equiv
zw
polym
357
triage
mrs
ants
varian
maximum
017
heavy
rotations
relaxed
speak
随
earthquake
xl
violation
2012b
flask
##apez
batches
algal
tz
##β1
mucus
wildtype
levels
devices
accuracies
matters
##unct
##ematics
##oxane
beet
##itory
##lim
interacts
boundary
siemens
usd
418
zhu
95
##bearing
a0
od600
##21
estradiol
peep
profiled
eighth
##mp
dimeric
##oman
sulphate
##iao
408
initiating
proteases
won
sustaining
pna
regul
chemoradiotherapy
##asp
potentiates
glucan
﻿
valuable
##tide
##¸
hypogly
hit
acp
##ingual
distin
s7
recurrence
cres
##传
transloc
plus
l3
royal
polymorphonuclear
##179
##opharmacology
##opter
visualization
organism
perfusion
clathrin
glyceraldehyde
grna
##n5
coenzyme
absolute
cpt
liqu
gps
nosocomial
##gal
cpd
gam
diverse
fadd
palladium
mammography
##ophys
##nn
⁻
analy
fits
inc
denom
##lc
insol
absent
2c
pedestr
maladaptive
suppressive
suppressor
ve
slic
rgd
decades
##ve
feelings
flat
interrupted
tomographic
##olo
postin
d5
##iella
53bp1
tils
incompletely
c20
##health
ntp
edible
posterior
synchron
sou
rgs
ribose
chris
portion
streptomycin
spectrometer
encompass
instant
𝒰
venous
server
##otherap
##ꞌ
scored
##ility
rol
nh2
302
asymptotic
##atever
##ittance
rewards
geriatric
haloperidol
##osph
2i
figure
equilibrium
say
accompl
##asc
##5α
##入
##personal
qs
proportion
##ki
alz
equine
##gfr
unc
consulted
radioimmuno
##15
3j
bach
tpr
japonic
定
documenting
ij
plasmids
whereby
##emis
precursor
ethnic
10b
biologists
95°c
thor
cac
este
foreign
##al1
##r
everything
cash
carotene
##agm
extant
##uster
signature
nursing
seam
3
pharmacokinetic
infused
##igh
creatinine
postoperatively
stepwise
silica
steat
edited
##etti
##partic
eliminates
##gap
osmol
trabec
ksh
finger
##olide
md
turkish
##ework
δc
aer
newcastle
prostaglandins
filler
sensed
phospholipids
artifact
residence
uncou
═
interpretation
750
attend
escalation
prl
210
attainment
onwards
385
140
3b
##oli
##均
##ygen
sie
8c
used
fetal
1k
##okinetic
introduces
##accum
industr
constipation
nodes
ℛ
demethylation
cd56
hfp
##n2
##⊨
jn
polarization
reach
linkage
##jo
##│
chicks
anaesthetic
hsv
tfi
derivative
第
##isal
quit
exploit
##imb
pretreatment
##ron
streptavidin
proapoptotic
savings
##zo
boe
iodo
choi
builds
increments
improves
imple
##chlor
isoleucine
․
st
anaesthesia
subtracted
hc
∥
lithium
##feld
##ism
operate
stent
oa
default
choles
##ort
7d
##br
occasionally
intral
##160
➔
straw
interactive
##π
remark
captures
claims
lactobac
impair
oocytes
99m
##c1
##odef
incorporates
relapsing
l6
transfection
recre
autophosphorylation
anthrac
costs
granulocyte
##orphic
similarities
pharmacokinetics
weinberg
advis
euc
pao2
trizol
dmso
fractures
infiltr
##aventricular
tempor
∪
##ij
phosphatidylserine
rivers
grains
dipolar
filtrate
advancing
union
newman
trna
##kd
trapez
critic
##onate
autoimmunity
naoh
particip
brings
dissatisfaction
biomass
##isely
[
firmly
layer
controlling
##189
capsid
streptoz
htt
avenue
usda
optimally
##ogroup
##anic
phs
incomplet
##ores
tle
##358
##eptic
iop
arv
独
capita
affecting
partly
##aching
##eke
##gaag
excel
##obium
##113
schizophren
##utable
论
ζ
pep
benzodiazep
resour
##​
##ired
cag
intramural
不
bites
##amma
vegetable
dismutase
cantilever
modifiable
##ele
effer
##蛋
cytoskeletal
celecoxib
##trated
##疫
qu
mantel
redox
basophils
##ect
dementia
xb
see
1024
leads
vehicle
р
manu
impacting
responsibilities
committee
##olds
tga
listing
melan
xin
pathology
##³
enlarged
支
wasting
##utr
transgenic
ptr
jose
##omes
shelf
archives
##ital
−80°c
chloramphenicol
##375
##uh
intracerebral
exclude
disturbance
cx43
naturally
summarize
lot
subfamilies
##udi
anastomosis
practices
277
binder
echocardiography
hcm
immunore
##放
liter
rrna
compreh
tetra
##pal
hydroxyl
raptor
gradi
##prop
ceramic
repop
pic
##ator
nm
degree
gates
技
ordinary
cmt
mach
peak
mutual
dub
##lines
249
intakes
c11
perovskite
autofluorescence
##cs
gcc
##239
##etz
##ρ
⅔
##ospatial
immunoglob
hallmarks
ibd
##步
rbf
fibers
ftd
##31
β4
##dy
111
marm
##产
sak
##gun
ld
prophyl
inflamed
##pens
calorimetry
tabulated
neoplastic
##‍
pathologically
##urry
##2o3
##exp
symb
scoring
dme
##mal
lectins
pervasive
january
stretch
potato
⨁
arrangements
denmark
113
street
⪰
earl
do
hrp
retur
##cts
microw
runx2
registers
contradict
pkb
ges
embolization
evaluated
ssd
resul
047
proviral
##osures
##atc
kdr
maturation
cdi
aided
##aux
##≻
document
spo
hpi
iac
conc
##nr
professor
##非
chemotherapy
##adt
certified
##供
710
##ocus
kat
varic
coexpressed
phall
406
license
evapor
##inear
##持
##rof
illustrates
cfr
##nutrition
prob
mei
significance
lead
##asculature
ken
classes
islands
eh
ultimate
##come
##238
sao
##inoid
##530
auxin
##yclone
##acial
equivalence
##olip
learn
##agonal
##chart
chit
##umab
nut
##ifera
synapse
twice
catal
##hc
##uss
pneumophila
acceptor
fimbr
##azine
asd
dephosphor
fluoro
orbital
fors
shielding
intracere
##ything
arid
白
table1
pristine
gsk3β
goods
##obarbital
restricts
compass
∞
childbirth
forks
cysteine
##∨
serves
intrinsically
ply
##anium
##𝒜
stewart
s11
##inflammation
nci
##omicro
nw
neuroticism
centromeric
norms
fst
misl
fwh
exonuclease
##insic
cue
turning
1970
efficacious
repres
cooling
psychologist
crl
supervised
##otecan
④
agarose
tom
##istinguishable
southwestern
##irc
##met
suppressed
sham
stacks
dj
##ecu
prevents
collins
dir
glaucoma
lds
company
##burn
diary
dcc
kol
conserv
trachea
##encephalon
µg
ˊ
tdtomato
transcript
cia
##ohyd
inoculum
validated
##ibular
appendic
mutagen
expect
cuticle
glycogen
##zes
plasmon
##ety
centr
preserves
compact
waveform
##iff
sio2
##tii
metabolized
courts
curr
china
headache
nafld
dynamic
##dn
imaging
dyst
##atter
possessed
francisco
014
##ildenafil
infarcts
wrky
356
vesicle
retrie
exemplified
matrices
ccl2
am
shortcomings
cosm
高
unigenes
anhed
native
##olla
culturing
comb
microd
programm
diarrhoea
##roun
lew
schul
lapatinib
than
engineered
bim
wp
asymm
最
primers
orthop
fulfilling
subj
19
passed
dickinson
cigar
purified
holotype
rnp
electrophysiology
diclofenac
deficiency
variation
tryp
caregiving
potent
principal
ect
wl
##phen
35s
airways
##eas
polypropylene
mir
##ophenyl
ligation
197
molecular
several
across
cycles
##endocrine
incis
neuraminidase
s1c
glucuron
complete
encouraging
##ali
warmed
substances
##np
construction
shared
##road
590
deeply
##prin
s9
##ectin
cyclase
herniation
##usions
hospice
##𝟙
##erc
gastrectomy
##物
illustrated
##别
brilliant
exploring
smoothed
##itter
depicts
mort
##ao
microscope
reason
hcv
preexisting
rk
##第
antimicrobials
##kar
isometric
slit
δg
districts
physicians
visualizing
##𝕀
##003
nms
vesicles
kshv
simult
##190
gdp
cold
poag
solubility
apply
addressing
##ϕ
counter
evaluates
2500
oxidants
conclusive
causing
##m2
refseq
astigmatism
desc
tyrosine
##aced
gra
bait
iia
msp
antisocial
vector
ⅰ
##itrile
game
repos
cholec
rape
computation
atpases
orth
proof
breakdown
emd
##emp
rely
度
must
linearized
radiographic
##ctgt
ligase
促
tolerable
prom
disrupting
cited
concatenated
shrimp
cust
rotated
mont
##phosph
##usp
xylene
hotspot
##∑
##orum
taylor
##ematic
##kt
##vert
ubiquitous
bottlen
myo
##≤
pulsatile
afferents
rings
wards
ew
##tructural
dispens
##olinium
multiplication
compens
hardware
intravitre
triggers
visibility
92
xho
##tinine
asymmetric
homeobox
differently
chemo
方
relax
1988
greek
##attr
thiol
invertebrates
thio
39
azath
##iw
##onazole
phosphorylate
det
##301
feld
fgf2
currents
ethical
scholar
##orp
tgg
ypd
stricture
##dv
sided
hamster
leadership
november
来
eg
##ximal
bcl6
irrele
pym
reports
leuk
##parts
opened
##ferase
combine
numbering
never
changes
mist
denatured
paroxys
thawed
gastritis
neurotransmitter
permeation
##osities
##oms
##posing
hyperg
##ulosis
106
##urgical
g3
echocardi
lineages
perist
burgd
##p4
##tility
zirc
appearance
exceeds
lymph
nanop
oxaliplatin
chr2
eukaryotic
viable
grew
pkcα
##feed
##omo
n
##an
##afenib
bp1
hct
pyridine
fitting
##cat
spermatocytes
##cross
autosomal
##ose
perceptions
bull
##sm
cytomegal
unwanted
temperate
##fan
##②
toolkit
##的
##berger
stained
delt
iner
etc
##tical
##eryth
cscs
pc3
morbid
h2so4
##idian
delineation
##etic
n0
antipar
translates
peroxide
transform
##bach
q
##table
probabil
sw
graphene
boosted
untrans
104
##⊺
##otracker
tnbc
syndromes
cavitation
barely
rod
pm10
##二
endosome
discriminatory
truth
encouraged
abt
disappeared
medulloblastoma
nerve
##regular
his6
required
gonz
neuropsychological
parenteral
##orrhea
200
protected
transcriptomic
gli1
theorem
question
##eper
taxonomy
microglial
morbidity
evolution
biore
bony
beta1
horn
cap
successfully
width
slides
neutrop
##acrine
##∊
venti
lrr
hyperplastic
princ
biolegend
##at3
peripher
ethn
filling
between
steps
consum
##dition
expertise
##uclear
##arone
macaques
extracting
ovary
##trypt
##ia
cytoplasmic
boiling
wait
disabilities
brit
box
cd1d
faeces
allop
##rin
consuming
unfold
dota
genuine
researches
##注
lucifer
articles
##phrine
##vate
naloxone
7e
sider
ryanodine
wor
dominated
mimic
##roup
cowork
##adays
aden
dropped
##anc
ribbon
明
##ivudine
hyperint
clearing
peritoneal
##ork
genotypes
⅓
versus
##optera
##类
immunity
pelvis
intran
vacuoles
deteriorated
seedling
calend
ouabain
##est
trypanosoma
sarcomas
floral
scramble
##erae
effusion
sialic
##ted
histocompatibility
##icc
##uture
lobular
perinuclear
##ession
synergy
soma
tendon
shan
##ƒ
li
consolidation
regulations
keys
dysm
noneth
surprisingly
prot
colocalization
psma
situated
murine
excitation
tcga
temozol
wr
##itative
##kinase
cathode
##fg
##ret
inflated
advice
cf
realized
sent
enl
neuroblast
physic
##ency
##terior
##ostatin
vocs
##xi
heterogeneity
##ns
intrinsic
production
transferred
pennsylvania
blotted
sgr
sage
entries
ppi
adamts
##iso
cy
ye
640
regeneration
coa
medically
kah
defer
adipocyte
nanocr
densit
yielding
apt
calcium
recover
investig
dt
190
##utations
ntm
apache
##σ
rodrig
e3
421
##uresis
appears
findings
##apping
u1
sz
与
##oy
pyre
jord
vr
##flag
患
configuration
ezh2
san
##terol
##ifferenti
oliv
attributed
##onds
peritoneum
dizziness
cyp1a1
aqu
recomb
ada
rodent
##142
##112
##heet
endoc
political
##3t3
projects
##kh
conceptualization
enc
##ilance
sectional
xt
hippocamp
п
##orax
##82
hypocal
mnps
versions
p6
whitney
aed
indentation
truncated
patella
##foli
240
rat
100
striatal
swimming
fft
tough
reperfusion
⁡
##ounts
##☐
morphogenetic
diseases
nt
pulmonary
centromere
##icles
neuroinflammation
residuals
zt
##ocortex
u2
143
##omegaly
hydroxide
##cents
centred
sterilized
glands
inhibited
granulosa
rises
rectif
isoelectric
acquired
heme
p2
spun
asser
automated
assimil
entities
##amer
waste
΄
isole
lifetime
60
##enteric
illnesses
wil
##vive
##inflamm
##otherapeu
thoughts
324
##amph
debr
tat
##延
dissoci
##ounced
##aint
55
##ensitivity
abortion
##ai
ω
hospital
prep
ros
cirrhotic
##odialysis
hypothermia
sich
contributed
treated
gcl
nikon
cast
blots
aortic
localised
adrs
mathematic
contraind
gynaec
biosynthetic
bullying
considerably
##rol
##ip1
santa
＝
mgso4
conduction
service
monitored
62
favorable
genetic
##ulating
##ites
overlo
denominator
shap
seizure
##etom
mean±sd
##⊃
##17f
average
clusters
remn
influence
we
rmse
coatings
##功
ambigu
elaborated
polyploid
vacu
lysate
##ky
##ples
##ugr
interpre
receipt
cbp
10−6
epi
##acr
imprec
复
##osus
cholera
vta
##umps
##ters
proteobacteria
happened
cv
bisphosphate
##ability
incre
neuropathological
nkg2
poisoning
medullary
tav
dimensionality
acknowledges
nitrite
##限
incubating
本
code
excision
sows
plan
##vent
emphasizes
software
anions
vaccines
divers
154
atg5
##ids
deleter
consumption
crow
bootstr
tube
##意
##imidazole
newborns
##ergic
hank
convers
tbs
carrier
vanc
bibli
##ist
polyaden
trs
##ications
##hibition
3t3
maximal
##raction
virul
condens
observable
biophys
##anical
itself
p30
fuzzy
##ypti
ffq
incorrect
psychotropic
s4a
retinoic
aw
107
schneider
epo
occluded
ams
thorough
##ain
aort
cd34
tur
xen
clinics
immersion
globulin
lc3b
metformin
counsel
hyaluronan
fep
try
surgeon
erm
unequal
##407
##e3
homodimers
equivalent
braf
discharged
gvhd
milan
##agens
和
suz
kink
##itable
apparently
graphics
288
undetectable
##havioral
ims
##ez
优
##cycler
433
moisture
##双
##anthine
aga
bmp2
woman
agrees
osteop
bacteroides
##cc
##iant
polymerases
accomplish
hypothes
labelled
ℂ
##quin
generates
jh
eppendorf
ependym
disab
dif
⑦
g6
absorp
##缓
terms
spot
##尼
##ocytoma
bulk
shif
oste
cutoffs
##cting
##181
##ups
oxyt
respondents
immigration
〚
geometric
##ations
fulfill
##相
undergoes
▲
paradigms
quadrant
inset
ht29
sulfate
##ep
spores
diarrho
icf
sdf
##alcoholic
ge
##agtt
il10
multicentre
ionomycin
dimeth
au
extracorporeal
##idel
repor
145
competing
architectures
vis
downregulate
##ylation
##opress
duplication
grn
registries
##erves
glycos
coefficients
fluorescent
febr
##−2
pai
level
greatest
pyrimidine
obstetric
gt
nin
insensitive
glomerular
note
predictive
ao
##mec
th17
tuning
tec
##bin
pioglitazone
monolayers
tof
##tie
officers
##tors
suic
##took
bronchoalveolar
exceptions
rheumatology
immunohistochemistry
fraction
teacher
calcd
gca
⊙
##ven
inqu
congr
prur
ih
##vant
ship
##asi
many
shield
##otrans
##rey
undertaking
##著
‥
##lan
##龄
##isters
cor
##ozo
leiomy
elect
555
passaged
prosth
mun
cofactors
west
knowledge
##ℛ
dietary
##onas
vhl
our
scales
poly
strongly
##ℏ
°c
scars
optimizing
##olysin
thresh
##alez
outdoor
differ
myx
increased
is
dysphagia
deceased
30s
##graduate
aif
factorial
rash
colombia
dsp
##单
standardised
mechanisms
substanti
aim
distinctive
10th
searches
266
pointed
correlate
rearing
po
ent
acetylation
gray
stemi
##he
mitf
rop
☐
cd47
paradigm
##etta
matth
kenya
oligos
pma
found
stages
pesticides
lengthening
##elled
endogenously
myel
endemic
ucl
irradiance
toy
atcc
virion
fabp
diarr
强
##н
cili
μa
deactivation
##uvant
srf
snails
player
resis
val
∅
##phos
##ochrome
tags
unusual
everolimus
iad
arginine
anomal
##xine
##is
gastric
preferable
sequence
manifest
purp
hypertrig
corpus
aβ40
##ovar
metac
##imumab
neurosci
resolving
##stat
fulfilled
splitting
emphysema
##adin
##药
unf
cyclodextrin
waltham
serological
arginase
silva
denat
charged
作
♯
p25
drs
withdrawal
2008b
##ales
plat
##utri
satisfaction
intervals
catecholamine
atrop
##urea
##ato
##ospasm
##ostin
##alanine
suggest
formal
##且
intellectual
planktonic
hca
buy
ski
visual
photobleaching
oxid
м
##水
heter
##ific
filtering
mmol
mumol
##ogen
launch
500
inspiration
##qx
position
smg
##ticular
##ctt
##228
michaelis
##204
ventricle
lean
zap
je
draining
neighb
versa
described
mp
births
cnts
set
adip
##qw
inherent
singly
kras
01
nse
enjoy
sympath
classifiers
delayed
wavelet
##j2
arn
prisma
##eck
5b
##tification
##iceal
1990
##uv
##ush
cirrhosis
config
discovering
##日
203
##ans
attenuation
##quisite
abund
mtx
##ham
evolve
concave
lymphocyte
inhibitors
##oprotective
##oposterior
motivated
migrating
##ece
1997
unfav
kinet
odors
##otyl
neuroimage
technique
wnt
discretion
affymetrix
dialogue
spectrom
estimated
colonies
1974
##⁠
components
##otemporal
pyrim
natl
canal
ladder
##nis
vertical
rj
supporting
dab
territories
spss
english
##enz
##all
〛
pter
ht1a
proteinuria
ced
limbic
##position
institution
palate
𝒯
maxilla
antigens
three
为
sterols
##异
##timal
transforming
affin
kpa
135
intestine
##ogenic
rf
105
bayesian
ligands
categorised
paid
environmentally
deplete
cip
##annab
t7
tremend
psoriasis
fifth
capac
individ
computer
115
antidepressants
⊤
assigned
bowel
artemisinin
dimension
##˘
cavern
transformations
##igen
stern
##opos
mito
##odynam
isoproterenol
beetles
83
##worm
##child
2011b
current
proficiency
authorities
permitting
interval
##zid
overc
compromise
##ipa
sibling
##f6
##book
chaper
##proliferative
针
obstruction
##grams
ret
hyperthyroidism
change
manifestation
culture
culturally
constitution
hydroxylation
ho
earning
diagnoses
##ively
##n1
osteocl
underp
combining
##emoral
framingham
reveals
379
cytometric
irak
trehalose
eug
schmidt
thems
##f
lncrna
epidemiology
lapa
##14
problems
underneath
knot
intraepithelial
notew
press
finite
##imide
cannulation
bland
figures
exponent
化
bromo
##aden
coverage
pla
psychiatrists
hunger
congestion
insecurity
butyrate
##gers
serp
emp
##4r
entirely
entrez
fingerpr
bure
aggregated
obstac
##trin
##isted
potentiated
##uch
peri
##nex
##ysts
prescrip
myocytes
′
1h
antit
apoptosis
##la
tgt
ang
apcs
kinase
imager
proposal
##odextrin
statistical
adenylyl
减
bulb
knocking
ringer
17
histone
crd
sap
nia
hepcidin
village
##pressive
secondly
prec
including
cs
6r
∨
##群
fix
##υ
chim
б
neur
##emal
##ighter
lutein
tet2
became
pir
##inae
pet
prrsv
plasmin
interacting
disorders
sbrt
fine
bioavailability
pari
varicella
requires
parametric
inference
burning
##g2
shortened
##307
newbor
syph
程
shown
races
##pon
£
##der
##⟶
mich
computerized
recognizes
diphther
clay
unve
separate
##17
vibrational
##aglu
pns
##opulmonary
种
335
##apr
##imited
##ood
joh
helium
barr
old
bzip
##ch
destro
crude
##vention
carbamazepine
calls
recycled
urothelial
„
fundamentally
gat
rods
##ada
efficiencies
man
nb
somewh
##appropr
minimally
measure
staffing
fruits
min
decreased
trpm
irs
progn
generalized
gx
autoreactive
differential
pbp
slowly
coom
##osperm
snc
nav1
treadm
##导
asa
catalyzes
恶
call
respect
jia
k1
sph
convergence
##phosphorylated
autocla
至
vacuolar
##ostomy
substitutions
phb
phosphotyrosine
microf
relapsed
im
equipment
at
##ocic
##hd
##iii
transcriptional
variety
generous
##eness
𝒥
its
auditory
##₈
##ton
abts
二
multis
raised
##х
omics
x
richness
##oul
seeks
recr
系
blunted
%
hsf1
bioinformatics
##800
##quar
##astigotes
emotionally
physical
b27
##apl
tdf
pairs
keep
seven
phenomenological
##adj
##tif
linearly
##nell
##asters
caga
core
nach
##icans
cave
##uli
pcd
proposes
tend
insert
##141
ending
##iving
vill
choosing
superiority
prem
##otypes
##oreg
tar
angry
unprecedented
rituximab
discriminant
##ch1
evans
phytoh
246
increases
glu
新
ori
replicated
##azole
transpl
irritation
begins
cocc
pneumon
antisense
manufacturing
assessed
cay
exped
randomization
255
##holders
urgently
˙
total
para
infiltration
chemil
##enyl
operational
reproduction
μg
δe
⋁
quadrupole
dms
malformations
##etical
##ʊ
031
inheritance
reporting
biodegradation
inspected
stew
log
##omatis
adjuvant
##iflu
accid
elucidated
##group
ali
pathogens
路
t1d
disruptions
intergenic
ssa
uplc
ift
ubc
driver
##ergy
conductive
deleted
hydrolase
##icul
horizon
mutating
palmi
##idomide
laboratories
anesthetics
422
lying
alleles
indexes
指
clients
gonorrh
cytosolic
##ynth
480
∇
graves
last
retinal
399
familiar
psc
nucleosomes
##序
仅
138
phox
病
vascular
chew
wild
parsimony
japonica
kramer
ctr
##echnology
sterility
∼1
shrnas
##itinib
maximize
exhibit
contamin
##eller
offering
nanocompos
availability
isother
ː
##ation
龄
calibr
1038
loose
199
drafting
##sc
甲
‚
tubing
srt
e16
curricula
##ctcc
disease
##ologist
participates
[PAD]
equimolar
##inski
chikv
##itting
tu
append
system
phyl
trypsin
mon
##back
mobilized
architecture
##oglyc
##诱
overse
a549
##74
speckle
had
ofc
unexpl
cpgs
1992
##timulated
##man
execute
black
bcr
imperfect
ffp
flag
methot
ctni
approximated
≥
fluency
supplemental
α4
speaker
contiguous
perivascular
dom
predominance
claud
fove
paroxysmal
mot
microg
hits
acetyl
expl
theta
crop
1ra
##umes
##ils
sulf
burden
ensures
shar
##ache
resultant
all
##oral
haw
reverses
lungs
causation
mask
du
discontinued
质
osm
gyr
stressed
ibs
hept
##002
rog
rav
atf4
more
abl1
marc
homing
probe
nhe
##inescence
meaningful
electronics
erβ
expressed
##usc
subtle
covalent
vinc
avoid
##ists
tort
glasgow
selected
smokers
##oster
[...]
